{
  "0": "\u0000",
  "1": "\u0001",
  "2": "\u0002",
  "3": "\u0003",
  "4": "\u0004",
  "5": "\u0005",
  "6": "\u0006",
  "7": "\u0007",
  "8": "\b",
  "9": "\t",
  "10": "\n",
  "11": "\u000b",
  "12": "\f",
  "13": "\r",
  "14": "\u000e",
  "15": "\u000f",
  "16": "\u0010",
  "17": "\u0011",
  "18": "\u0012",
  "19": "\u0013",
  "20": "\u0014",
  "21": "\u0015",
  "22": "\u0016",
  "23": "\u0017",
  "24": "\u0018",
  "25": "\u0019",
  "26": "\u001a",
  "27": "\u001b",
  "28": "\u001c",
  "29": "\u001d",
  "30": "\u001e",
  "31": "\u001f",
  "32": " ",
  "33": "!",
  "34": "\"",
  "35": "#",
  "36": "$",
  "37": "%",
  "38": "&",
  "39": "'",
  "40": "(",
  "41": ")",
  "42": "*",
  "43": "+",
  "44": ",",
  "45": "-",
  "46": ".",
  "47": "/",
  "48": "0",
  "49": "1",
  "50": "2",
  "51": "3",
  "52": "4",
  "53": "5",
  "54": "6",
  "55": "7",
  "56": "8",
  "57": "9",
  "58": ":",
  "59": ";",
  "60": "<",
  "61": "=",
  "62": ">",
  "63": "?",
  "64": "@",
  "65": "A",
  "66": "B",
  "67": "C",
  "68": "D",
  "69": "E",
  "70": "F",
  "71": "G",
  "72": "H",
  "73": "I",
  "74": "J",
  "75": "K",
  "76": "L",
  "77": "M",
  "78": "N",
  "79": "O",
  "80": "P",
  "81": "Q",
  "82": "R",
  "83": "S",
  "84": "T",
  "85": "U",
  "86": "V",
  "87": "W",
  "88": "X",
  "89": "Y",
  "90": "Z",
  "91": "[",
  "92": "\\",
  "93": "]",
  "94": "^",
  "95": "_",
  "96": "`",
  "97": "a",
  "98": "b",
  "99": "c",
  "100": "d",
  "101": "e",
  "102": "f",
  "103": "g",
  "104": "h",
  "105": "i",
  "106": "j",
  "107": "k",
  "108": "l",
  "109": "m",
  "110": "n",
  "111": "o",
  "112": "p",
  "113": "q",
  "114": "r",
  "115": "s",
  "116": "t",
  "117": "u",
  "118": "v",
  "119": "w",
  "120": "x",
  "121": "y",
  "122": "z",
  "123": "{",
  "124": "|",
  "125": "}",
  "126": "~",
  "127": "",
  "128": "�",
  "129": "�",
  "130": "�",
  "131": "�",
  "132": "�",
  "133": "�",
  "134": "�",
  "135": "�",
  "136": "�",
  "137": "�",
  "138": "�",
  "139": "�",
  "140": "�",
  "141": "�",
  "142": "�",
  "143": "�",
  "144": "�",
  "145": "�",
  "146": "�",
  "147": "�",
  "148": "�",
  "149": "�",
  "150": "�",
  "151": "�",
  "152": "�",
  "153": "�",
  "154": "�",
  "155": "�",
  "156": "�",
  "157": "�",
  "158": "�",
  "159": "�",
  "160": "�",
  "161": "�",
  "162": "�",
  "163": "�",
  "164": "�",
  "165": "�",
  "166": "�",
  "167": "�",
  "168": "�",
  "169": "�",
  "170": "�",
  "171": "�",
  "172": "�",
  "173": "�",
  "174": "�",
  "175": "�",
  "176": "�",
  "177": "�",
  "178": "�",
  "179": "�",
  "180": "�",
  "181": "�",
  "182": "�",
  "183": "�",
  "184": "�",
  "185": "�",
  "186": "�",
  "187": "�",
  "188": "�",
  "189": "�",
  "190": "�",
  "191": "�",
  "192": "�",
  "193": "�",
  "194": "�",
  "195": "�",
  "196": "�",
  "197": "�",
  "198": "�",
  "199": "�",
  "200": "�",
  "201": "�",
  "202": "�",
  "203": "�",
  "204": "�",
  "205": "�",
  "206": "�",
  "207": "�",
  "208": "�",
  "209": "�",
  "210": "�",
  "211": "�",
  "212": "�",
  "213": "�",
  "214": "�",
  "215": "�",
  "216": "�",
  "217": "�",
  "218": "�",
  "219": "�",
  "220": "�",
  "221": "�",
  "222": "�",
  "223": "�",
  "224": "�",
  "225": "�",
  "226": "�",
  "227": "�",
  "228": "�",
  "229": "�",
  "230": "�",
  "231": "�",
  "232": "�",
  "233": "�",
  "234": "�",
  "235": "�",
  "236": "�",
  "237": "�",
  "238": "�",
  "239": "�",
  "240": "�",
  "241": "�",
  "242": "�",
  "243": "�",
  "244": "�",
  "245": "�",
  "246": "�",
  "247": "�",
  "248": "�",
  "249": "�",
  "250": "�",
  "251": "�",
  "252": "�",
  "253": "�",
  "254": "�",
  "255": "�",
  "256": "<|endoftext|>",
  "257": " t",
  "258": "he",
  "259": " a",
  "260": " s",
  "261": " w",
  "262": " the",
  "263": "nd",
  "264": "ed",
  "265": " b",
  "266": " to",
  "267": " and",
  "268": " h",
  "269": " f",
  "270": " T",
  "271": "in",
  "272": " wa",
  "273": "re",
  "274": "it",
  "275": "ou",
  "276": " l",
  "277": " d",
  "278": " c",
  "279": " p",
  "280": "ay",
  "281": " m",
  "282": "er",
  "283": " was",
  "284": " The",
  "285": "om",
  "286": " he",
  "287": "is",
  "288": " n",
  "289": "im",
  "290": "ar",
  "291": "on",
  "292": " sa",
  "293": "ll",
  "294": "id",
  "295": " ha",
  "296": " g",
  "297": "at",
  "298": " S",
  "299": "ing",
  "300": "ot",
  "301": "en",
  "302": "an",
  "303": "le",
  "304": "or",
  "305": "ir",
  "306": "am",
  "307": "et",
  "308": " H",
  "309": " it",
  "310": " th",
  "311": "ig",
  "312": " They",
  "313": " pl",
  "314": " in",
  "315": "il",
  "316": " He",
  "317": " \"",
  "318": "ow",
  "319": "ver",
  "320": "ri",
  "321": " u",
  "322": "ut",
  "323": " play",
  "324": "ith",
  "325": " said",
  "326": " be",
  "327": " day",
  "328": " with",
  "329": "pp",
  "330": "On",
  "331": " o",
  "332": " y",
  "333": "oo",
  "334": "ked",
  "335": " r",
  "336": " her",
  "337": "ce",
  "338": "ld",
  "339": " his",
  "340": " Tim",
  "341": " I",
  "342": " She",
  "343": " st",
  "344": "ke",
  "345": " e",
  "346": " big",
  "347": "nt",
  "348": "ck",
  "349": "very",
  "350": " you",
  "351": "st",
  "352": "ve",
  "353": "end",
  "354": "un",
  "355": " happ",
  "356": " on",
  "357": "all",
  "358": "riend",
  "359": " friend",
  "360": " they",
  "361": " L",
  "362": "ily",
  "363": " we",
  "364": " had",
  "365": " up",
  "366": " li",
  "367": " not",
  "368": "her",
  "369": " want",
  "370": "itt",
  "371": " of",
  "372": "ad",
  "373": " do",
  "374": " B",
  "375": "se",
  "376": " happy",
  "377": "ent",
  "378": " very",
  "379": " M",
  "380": "es",
  "381": " saw",
  "382": "One",
  "383": " that",
  "384": "ould",
  "385": "'s",
  "386": " for",
  "387": "ittle",
  "388": " mom",
  "389": " little",
  "390": " so",
  "391": " sh",
  "392": " she",
  "393": "ime",
  "394": "ch",
  "395": " nam",
  "396": " time",
  "397": " k",
  "398": " ne",
  "399": "ound",
  "400": ".\"",
  "401": " there",
  "402": " named",
  "403": " bo",
  "404": " sm",
  "405": " were",
  "406": " wanted",
  "407": " Lily",
  "408": " friends",
  "409": "out",
  "410": "ird",
  "411": " but",
  "412": "ved",
  "413": "ht",
  "414": "!\"",
  "415": "The",
  "416": " Tom",
  "417": " bird",
  "418": "el",
  "419": "ake",
  "420": " an",
  "421": "al",
  "422": " too",
  "423": "ome",
  "424": " went",
  "425": " wh",
  "426": "ide",
  "427": "Once",
  "428": " all",
  "429": " It",
  "430": " hel",
  "431": "ug",
  "432": "ue",
  "433": " help",
  "434": " is",
  "435": " loo",
  "436": " A",
  "437": " upon",
  "438": " lo",
  "439": "ter",
  "440": "ry",
  "441": " toy",
  "442": "ore",
  "443": " fun",
  "444": "ind",
  "445": "get",
  "446": "ill",
  "447": "ame",
  "448": " as",
  "449": " j",
  "450": "ra",
  "451": " at",
  "452": "gether",
  "453": " cat",
  "454": " did",
  "455": " re",
  "456": "ur",
  "457": " together",
  "458": "ack",
  "459": " se",
  "460": "ly",
  "461": " tre",
  "462": "ood",
  "463": " dog",
  "464": "ic",
  "465": " could",
  "466": "ted",
  "467": " can",
  "468": " ball",
  "469": "ard",
  "470": " gir",
  "471": " their",
  "472": "ark",
  "473": " girl",
  "474": " played",
  "475": "ec",
  "476": "my",
  "477": " him",
  "478": " go",
  "479": "way",
  "480": " ro",
  "481": "?\"",
  "482": "hed",
  "483": "ain",
  "484": " kn",
  "485": " le",
  "486": " out",
  "487": "hen",
  "488": " are",
  "489": " fr",
  "490": "um",
  "491": "'t",
  "492": " them",
  "493": " boy",
  "494": " sad",
  "495": "ul",
  "496": "ax",
  "497": " tree",
  "498": "other",
  "499": "oug",
  "500": " man",
  "501": " loved",
  "502": " have",
  "503": " cl",
  "504": " found",
  "505": " looked",
  "506": " sp",
  "507": " Sue",
  "508": " star",
  "509": " sc",
  "510": "one",
  "511": " back",
  "512": "own",
  "513": "hing",
  "514": "are",
  "515": " Max",
  "516": " like",
  "517": " bec",
  "518": "side",
  "519": "ful",
  "520": " me",
  "521": "op",
  "522": "ong",
  "523": " park",
  "524": " would",
  "525": "ight",
  "526": " liked",
  "527": "round",
  "528": " One",
  "529": "elt",
  "530": " fa",
  "531": " make",
  "532": " car",
  "533": "ell",
  "534": " But",
  "535": " felt",
  "536": " la",
  "537": " W",
  "538": " asked",
  "539": " Sam",
  "540": "You",
  "541": "ared",
  "542": "omet",
  "543": "ice",
  "544": " came",
  "545": " started",
  "546": " new",
  "547": "ag",
  "548": " see",
  "549": " no",
  "550": "ought",
  "551": "ouse",
  "552": " Ben",
  "553": " al",
  "554": "iled",
  "555": " ag",
  "556": " other",
  "557": " good",
  "558": "pot",
  "559": " somet",
  "560": " small",
  "561": " br",
  "562": "ob",
  "563": "ss",
  "564": " smiled",
  "565": "ade",
  "566": "ried",
  "567": "ings",
  "568": " say",
  "569": " find",
  "570": " wor",
  "571": " away",
  "572": " ex",
  "573": " from",
  "574": " thought",
  "575": " made",
  "576": " Spot",
  "577": " what",
  "578": " home",
  "579": " co",
  "580": " playing",
  "581": "ened",
  "582": " something",
  "583": "ty",
  "584": " put",
  "585": " every",
  "586": " wal",
  "587": "ach",
  "588": " mu",
  "589": "ia",
  "590": "uc",
  "591": "ook",
  "592": "ie",
  "593": "ny",
  "594": " F",
  "595": " again",
  "596": " ran",
  "597": " down",
  "598": "ile",
  "599": "dd",
  "600": "arn",
  "601": " toys",
  "602": "ave",
  "603": " pr",
  "604": "king",
  "605": " scared",
  "606": " some",
  "607": " took",
  "608": " laug",
  "609": " J",
  "610": " house",
  "611": " fl",
  "612": "if",
  "613": "ab",
  "614": " around",
  "615": " box",
  "616": " sw",
  "617": "ure",
  "618": "ick",
  "619": " learn",
  "620": "ep",
  "621": "ret",
  "622": "ish",
  "623": "oud",
  "624": "uck",
  "625": " your",
  "626": " lived",
  "627": " You",
  "628": " things",
  "629": " sun",
  "630": " then",
  "631": " will",
  "632": "ew",
  "633": " bl",
  "634": " my",
  "635": "as",
  "636": " when",
  "637": " ab",
  "638": "pped",
  "639": ",\"",
  "640": "us",
  "641": " get",
  "642": "ank",
  "643": "Tim",
  "644": "Th",
  "645": " ch",
  "646": " lot",
  "647": "ucy",
  "648": "oth",
  "649": "ap",
  "650": "ump",
  "651": " Mia",
  "652": " who",
  "653": " tried",
  "654": "ist",
  "655": " fe",
  "656": " know",
  "657": " got",
  "658": "ited",
  "659": "ust",
  "660": " many",
  "661": " about",
  "662": " says",
  "663": " int",
  "664": "ally",
  "665": "nder",
  "666": " red",
  "667": " knew",
  "668": " pret",
  "669": "ive",
  "670": " dec",
  "671": "Lily",
  "672": "ise",
  "673": "ous",
  "674": " any",
  "675": "au",
  "676": " D",
  "677": "ace",
  "678": " care",
  "679": " more",
  "680": " pic",
  "681": "qu",
  "682": "fter",
  "683": " best",
  "684": "ause",
  "685": " op",
  "686": " became",
  "687": " Lucy",
  "688": " po",
  "689": " water",
  "690": "ways",
  "691": "�",
  "692": "fe",
  "693": " hug",
  "694": " learned",
  "695": " Bob",
  "696": " exc",
  "697": " because",
  "698": "ite",
  "699": " always",
  "700": " look",
  "701": " outside",
  "702": " into",
  "703": " room",
  "704": " both",
  "705": " un",
  "706": "ided",
  "707": " So",
  "708": " show",
  "709": " laughed",
  "710": " eat",
  "711": " decided",
  "712": " And",
  "713": " gre",
  "714": " ho",
  "715": "urp",
  "716": "udd",
  "717": "ant",
  "718": " pe",
  "719": "ers",
  "720": " v",
  "721": " E",
  "722": " Mom",
  "723": " jump",
  "724": "nn",
  "725": " long",
  "726": " one",
  "727": " ke",
  "728": " this",
  "729": " run",
  "730": " nice",
  "731": "Yes",
  "732": " excited",
  "733": " fast",
  "734": "They",
  "735": "Tom",
  "736": " feel",
  "737": " dad",
  "738": " told",
  "739": " mo",
  "740": " sk",
  "741": " inside",
  "742": "our",
  "743": " am",
  "744": " tr",
  "745": " sl",
  "746": "ull",
  "747": "lew",
  "748": " sor",
  "749": " take",
  "750": "urpr",
  "751": " rock",
  "752": "iny",
  "753": " pretty",
  "754": "nna",
  "755": " surpr",
  "756": " gave",
  "757": " each",
  "758": " gra",
  "759": "imal",
  "760": "ink",
  "761": " animal",
  "762": " much",
  "763": " how",
  "764": "Wh",
  "765": " str",
  "766": " old",
  "767": " need",
  "768": "But",
  "769": " than",
  "770": " let",
  "771": "ven",
  "772": "ara",
  "773": "ro",
  "774": "ged",
  "775": " tow",
  "776": "ess",
  "777": " under",
  "778": " C",
  "779": " sorry",
  "780": " or",
  "781": " walked",
  "782": " cle",
  "783": "and",
  "784": "ft",
  "785": " ta",
  "786": " hand",
  "787": "ge",
  "788": " te",
  "789": "ised",
  "790": "og",
  "791": " fish",
  "792": "urn",
  "793": "urt",
  "794": " kind",
  "795": "ff",
  "796": " clo",
  "797": " His",
  "798": " wat",
  "799": "ving",
  "800": " hig",
  "801": " animals",
  "802": "ase",
  "803": " Amy",
  "804": " just",
  "805": " us",
  "806": " happened",
  "807": "ched",
  "808": " food",
  "809": "pl",
  "810": " sky",
  "811": " flow",
  "812": "here",
  "813": " sn",
  "814": "rom",
  "815": " try",
  "816": " list",
  "817": " ide",
  "818": " We",
  "819": " near",
  "820": "gry",
  "821": " didn",
  "822": " idea",
  "823": " bet",
  "824": " en",
  "825": "able",
  "826": "ate",
  "827": "ine",
  "828": " fi",
  "829": " flew",
  "830": "eci",
  "831": " its",
  "832": "ream",
  "833": "Thank",
  "834": " careful",
  "835": " share",
  "836": " cake",
  "837": "ex",
  "838": " heard",
  "839": " better",
  "840": " tw",
  "841": " stor",
  "842": " if",
  "843": "ecial",
  "844": " special",
  "845": " dan",
  "846": "pec",
  "847": "ber",
  "848": "ion",
  "849": " Th",
  "850": " bear",
  "851": " lots",
  "852": " wind",
  "853": "lf",
  "854": "more",
  "855": " anymore",
  "856": "udden",
  "857": " clean",
  "858": " never",
  "859": " fo",
  "860": " don",
  "861": "Mom",
  "862": " gr",
  "863": " bug",
  "864": " tal",
  "865": "ople",
  "866": " com",
  "867": " hard",
  "868": " bu",
  "869": " end",
  "870": " Then",
  "871": " by",
  "872": " fly",
  "873": "uddenly",
  "874": " mag",
  "875": "ort",
  "876": " turn",
  "877": " fore",
  "878": " over",
  "879": " Anna",
  "880": " Every",
  "881": " even",
  "882": "rm",
  "883": "\n\n",
  "884": " love",
  "885": " col",
  "886": " safe",
  "887": " people",
  "888": " after",
  "889": " bad",
  "890": "ady",
  "891": " high",
  "892": " fam",
  "893": " ground",
  "894": "ak",
  "895": " door",
  "896": "imb",
  "897": " come",
  "898": "bb",
  "899": " shiny",
  "900": " proud",
  "901": "As",
  "902": " opened",
  "903": " climb",
  "904": "uff",
  "905": " hurt",
  "906": " picked",
  "907": " blue",
  "908": " loud",
  "909": "pected",
  "910": "Let",
  "911": " che",
  "912": " give",
  "913": " way",
  "914": " surprised",
  "915": " gl",
  "916": "'m",
  "917": "expected",
  "918": " unexpected",
  "919": "ild",
  "920": " thanked",
  "921": " cu",
  "922": " book",
  "923": "ummy",
  "924": " When",
  "925": " From",
  "926": " call",
  "927": " color",
  "928": " Her",
  "929": " far",
  "930": "arden",
  "931": " garden",
  "932": " magic",
  "933": " ever",
  "934": " K",
  "935": " par",
  "936": "ough",
  "937": "kay",
  "938": " im",
  "939": " hugged",
  "940": " still",
  "941": " place",
  "942": "No",
  "943": " unt",
  "944": "ool",
  "945": " off",
  "946": " Sara",
  "947": "age",
  "948": " ma",
  "949": " smile",
  "950": " walk",
  "951": "ture",
  "952": " P",
  "953": " jumped",
  "954": " family",
  "955": " In",
  "956": " until",
  "957": "unny",
  "958": "iz",
  "959": "hes",
  "960": " pa",
  "961": "em",
  "962": " should",
  "963": " qu",
  "964": " now",
  "965": "ip",
  "966": " kid",
  "967": "ct",
  "968": " stick",
  "969": "itty",
  "970": " stay",
  "971": " strong",
  "972": " forest",
  "973": " sto",
  "974": "ane",
  "975": " dra",
  "976": "aut",
  "977": " app",
  "978": "uffy",
  "979": "dy",
  "980": " bro",
  "981": " boat",
  "982": " great",
  "983": " squ",
  "984": " bra",
  "985": " beaut",
  "986": " tra",
  "987": "xt",
  "988": " next",
  "989": " jo",
  "990": " helped",
  "991": " Sally",
  "992": "lease",
  "993": " hat",
  "994": "les",
  "995": " happily",
  "996": " picture",
  "997": " story",
  "998": "iful",
  "999": "ies",
  "1000": " beautiful",
  "1001": " listen",
  "1002": "ning",
  "1003": "th",
  "1004": " showed",
  "1005": " while",
  "1006": " called",
  "1007": "oon",
  "1008": " met",
  "1009": " clos",
  "1010": "Now",
  "1011": " kids",
  "1012": "pt",
  "1013": " open",
  "1014": " frog",
  "1015": " mor",
  "1016": " rem",
  "1017": "luffy",
  "1018": " town",
  "1019": " soft",
  "1020": " everyone",
  "1021": "Can",
  "1022": "It",
  "1023": "ger",
  "1024": " imp",
  "1025": " being",
  "1026": "He",
  "1027": "When",
  "1028": " stopped",
  "1029": " ad",
  "1030": "rel",
  "1031": " rain",
  "1032": " angry",
  "1033": "by",
  "1034": " yummy",
  "1035": " watch",
  "1036": "bit",
  "1037": " doll",
  "1038": " couldn",
  "1039": " ca",
  "1040": "abbit",
  "1041": "vent",
  "1042": "ary",
  "1043": " Let",
  "1044": "ree",
  "1045": " truck",
  "1046": " de",
  "1047": "ished",
  "1048": " Kitty",
  "1049": " mouse",
  "1050": " rabbit",
  "1051": "be",
  "1052": "dded",
  "1053": " ate",
  "1054": "ress",
  "1055": "iss",
  "1056": " wo",
  "1057": " Fluffy",
  "1058": " lost",
  "1059": " warm",
  "1060": " slide",
  "1061": " face",
  "1062": " brave",
  "1063": " game",
  "1064": " Wh",
  "1065": " keep",
  "1066": " fell",
  "1067": "fore",
  "1068": " leave",
  "1069": " flowers",
  "1070": " two",
  "1071": " cook",
  "1072": "owl",
  "1073": " bed",
  "1074": " cry",
  "1075": " pus",
  "1076": "illy",
  "1077": "so",
  "1078": "ock",
  "1079": " soon",
  "1080": " noise",
  "1081": " green",
  "1082": " also",
  "1083": " R",
  "1084": "That",
  "1085": " bunny",
  "1086": "ear",
  "1087": " nodded",
  "1088": " where",
  "1089": "gan",
  "1090": "self",
  "1091": " fix",
  "1092": " sat",
  "1093": " having",
  "1094": "ired",
  "1095": "Hi",
  "1096": " yell",
  "1097": " before",
  "1098": "”",
  "1099": " kept",
  "1100": " hole",
  "1101": " pain",
  "1102": "“",
  "1103": " hear",
  "1104": "ble",
  "1105": "day",
  "1106": " store",
  "1107": "What",
  "1108": " hands",
  "1109": " catch",
  "1110": "Look",
  "1111": " use",
  "1112": "irrel",
  "1113": "Then",
  "1114": " sing",
  "1115": " fin",
  "1116": "az",
  "1117": "irst",
  "1118": " used",
  "1119": " mommy",
  "1120": " thr",
  "1121": " expl",
  "1122": " funny",
  "1123": " squirrel",
  "1124": " birds",
  "1125": "Ben",
  "1126": " Now",
  "1127": " cra",
  "1128": " looking",
  "1129": "uch",
  "1130": " tired",
  "1131": " ey",
  "1132": " going",
  "1133": " wait",
  "1134": " bre",
  "1135": " kit",
  "1136": "oy",
  "1137": "eet",
  "1138": "aybe",
  "1139": "leep",
  "1140": " mean",
  "1141": "ange",
  "1142": "thing",
  "1143": "ught",
  "1144": " our",
  "1145": "led",
  "1146": " pull",
  "1147": "air",
  "1148": " dif",
  "1149": " fav",
  "1150": " sunny",
  "1151": " tri",
  "1152": " pond",
  "1153": "ember",
  "1154": " Can",
  "1155": " has",
  "1156": "chen",
  "1157": " kitchen",
  "1158": " wr",
  "1159": " party",
  "1160": " think",
  "1161": " ice",
  "1162": " flo",
  "1163": "orn",
  "1164": "oh",
  "1165": " work",
  "1166": "ting",
  "1167": "ac",
  "1168": "We",
  "1169": " head",
  "1170": "uit",
  "1171": " bus",
  "1172": " worked",
  "1173": " mess",
  "1174": " dr",
  "1175": "ng",
  "1176": " real",
  "1177": " Do",
  "1178": "zy",
  "1179": "ious",
  "1180": "ohn",
  "1181": " okay",
  "1182": " others",
  "1183": " sound",
  "1184": "llow",
  "1185": " moral",
  "1186": " beh",
  "1187": " eyes",
  "1188": "ath",
  "1189": " sand",
  "1190": "rew",
  "1191": " talk",
  "1192": " shared",
  "1193": " advent",
  "1194": " z",
  "1195": " remember",
  "1196": " “",
  "1197": " favor",
  "1198": "joy",
  "1199": "ma",
  "1200": " favorite",
  "1201": "ello",
  "1202": "Hello",
  "1203": " right",
  "1204": " ask",
  "1205": " curi",
  "1206": " cut",
  "1207": " cold",
  "1208": " ri",
  "1209": " hop",
  "1210": " con",
  "1211": " import",
  "1212": " hill",
  "1213": " mon",
  "1214": "lly",
  "1215": " dir",
  "1216": "imes",
  "1217": " making",
  "1218": " enjoy",
  "1219": " follow",
  "1220": " curious",
  "1221": " vo",
  "1222": " pie",
  "1223": " bright",
  "1224": " yard",
  "1225": " G",
  "1226": "At",
  "1227": " flower",
  "1228": "ken",
  "1229": "Don",
  "1230": " sweet",
  "1231": "reed",
  "1232": " move",
  "1233": " duck",
  "1234": " dis",
  "1235": " rest",
  "1236": " own",
  "1237": " draw",
  "1238": " first",
  "1239": " important",
  "1240": " top",
  "1241": " Jack",
  "1242": " sho",
  "1243": " cla",
  "1244": " began",
  "1245": " tall",
  "1246": " pick",
  "1247": " block",
  "1248": " watched",
  "1249": "ount",
  "1250": " sleep",
  "1251": " bel",
  "1252": " lady",
  "1253": "After",
  "1254": " night",
  "1255": " thing",
  "1256": "Wow",
  "1257": "ied",
  "1258": " race",
  "1259": "ster",
  "1260": " tail",
  "1261": " hot",
  "1262": "fere",
  "1263": " hid",
  "1264": " hun",
  "1265": " differe",
  "1266": " agreed",
  "1267": " floor",
  "1268": " shout",
  "1269": " here",
  "1270": " stop",
  "1271": "ect",
  "1272": " forg",
  "1273": " dark",
  "1274": " This",
  "1275": " bag",
  "1276": " grass",
  "1277": "ign",
  "1278": " worry",
  "1279": " song",
  "1280": " table",
  "1281": " tast",
  "1282": " tell",
  "1283": "que",
  "1284": " prin",
  "1285": " needed",
  "1286": " leaves",
  "1287": "aring",
  "1288": " voice",
  "1289": " yellow",
  "1290": " read",
  "1291": "aper",
  "1292": " farm",
  "1293": " Fin",
  "1294": " ru",
  "1295": " trees",
  "1296": " dress",
  "1297": " hair",
  "1298": " swing",
  "1299": "Why",
  "1300": " different",
  "1301": " del",
  "1302": " adventure",
  "1303": " walking",
  "1304": " turned",
  "1305": " surprise",
  "1306": " please",
  "1307": "’",
  "1308": " Mr",
  "1309": " hungry",
  "1310": "Max",
  "1311": " does",
  "1312": " cars",
  "1313": " Suddenly",
  "1314": " colors",
  "1315": " Dad",
  "1316": "oom",
  "1317": "Suddenly",
  "1318": " laugh",
  "1319": "bo",
  "1320": "Sue",
  "1321": " closer",
  "1322": "ached",
  "1323": "Sam",
  "1324": " pretend",
  "1325": "co",
  "1326": " lion",
  "1327": "ient",
  "1328": "ered",
  "1329": "ila",
  "1330": " broken",
  "1331": " wood",
  "1332": " prom",
  "1333": " cried",
  "1334": "bye",
  "1335": " wet",
  "1336": " piece",
  "1337": " friendly",
  "1338": " Timmy",
  "1339": " full",
  "1340": " behind",
  "1341": " train",
  "1342": "isy",
  "1343": " dance",
  "1344": "Anna",
  "1345": "ppy",
  "1346": " touch",
  "1347": " climbed",
  "1348": " another",
  "1349": " danc",
  "1350": "af",
  "1351": "So",
  "1352": " gone",
  "1353": "where",
  "1354": " apple",
  "1355": " smell",
  "1356": "bbed",
  "1357": " swim",
  "1358": " ste",
  "1359": "cked",
  "1360": " blocks",
  "1361": "ater",
  "1362": " feeling",
  "1363": "sh",
  "1364": " paper",
  "1365": " That",
  "1366": "She",
  "1367": " amaz",
  "1368": " As",
  "1369": " ant",
  "1370": " per",
  "1371": " butter",
  "1372": " running",
  "1373": " Jane",
  "1374": " reached",
  "1375": " helping",
  "1376": " listened",
  "1377": " fair",
  "1378": "iced",
  "1379": " goodbye",
  "1380": " ready",
  "1381": "av",
  "1382": " only",
  "1383": " hold",
  "1384": " light",
  "1385": " ac",
  "1386": "ray",
  "1387": "aby",
  "1388": "ike",
  "1389": " O",
  "1390": " roll",
  "1391": "Sara",
  "1392": " cream",
  "1393": " Bobo",
  "1394": " repl",
  "1395": " dri",
  "1396": "key",
  "1397": " sit",
  "1398": " pushed",
  "1399": " fight",
  "1400": " slow",
  "1401": " plan",
  "1402": " close",
  "1403": "red",
  "1404": " All",
  "1405": " less",
  "1406": " done",
  "1407": "pe",
  "1408": " wag",
  "1409": " wall",
  "1410": " owl",
  "1411": " cool",
  "1412": " sees",
  "1413": " must",
  "1414": " glad",
  "1415": " fruit",
  "1416": " wise",
  "1417": "ield",
  "1418": " tiny",
  "1419": " wonder",
  "1420": " moment",
  "1421": " trying",
  "1422": " stuck",
  "1423": "ather",
  "1424": " dream",
  "1425": "In",
  "1426": " through",
  "1427": " din",
  "1428": "ash",
  "1429": " wished",
  "1430": " pen",
  "1431": " fire",
  "1432": "ames",
  "1433": " reach",
  "1434": " thank",
  "1435": " bar",
  "1436": " been",
  "1437": " baby",
  "1438": " window",
  "1439": " join",
  "1440": " explore",
  "1441": "ott",
  "1442": " looks",
  "1443": " doing",
  "1444": " Everyone",
  "1445": " ar",
  "1446": " buy",
  "1447": " bit",
  "1448": " shouted",
  "1449": " air",
  "1450": "Mia",
  "1451": " hide",
  "1452": " build",
  "1453": " Mommy",
  "1454": " nest",
  "1455": " swam",
  "1456": " scary",
  "1457": " fall",
  "1458": " coming",
  "1459": " cloud",
  "1460": " land",
  "1461": " bran",
  "1462": "oney",
  "1463": " win",
  "1464": " blew",
  "1465": " seen",
  "1466": "andy",
  "1467": " perf",
  "1468": "ask",
  "1469": " dirty",
  "1470": " child",
  "1471": " held",
  "1472": " books",
  "1473": "avy",
  "1474": "ph",
  "1475": " bigger",
  "1476": " replied",
  "1477": " quick",
  "1478": " left",
  "1479": " mat",
  "1480": "ely",
  "1481": " underst",
  "1482": " might",
  "1483": " treat",
  "1484": "ndma",
  "1485": " colorful",
  "1486": " pulled",
  "1487": " grabbed",
  "1488": " why",
  "1489": " turns",
  "1490": "Okay",
  "1491": " dro",
  "1492": " butterf",
  "1493": "ized",
  "1494": " remembered",
  "1495": "icy",
  "1496": " fill",
  "1497": " name",
  "1498": "ucky",
  "1499": " cup",
  "1500": " chair",
  "1501": " cast",
  "1502": " broke",
  "1503": "orm",
  "1504": " sometimes",
  "1505": " count",
  "1506": "aisy",
  "1507": " three",
  "1508": " sure",
  "1509": "oup",
  "1510": "ation",
  "1511": " spl",
  "1512": " hopped",
  "1513": " pink",
  "1514": "ton",
  "1515": " stayed",
  "1516": " snow",
  "1517": " job",
  "1518": " clapped",
  "1519": "up",
  "1520": "Oh",
  "1521": " games",
  "1522": "der",
  "1523": " bott",
  "1524": " gif",
  "1525": "ee",
  "1526": " waited",
  "1527": "'re",
  "1528": " There",
  "1529": " plant",
  "1530": " noticed",
  "1531": " grow",
  "1532": " lesson",
  "1533": " balloon",
  "1534": "ix",
  "1535": " anything",
  "1536": " pictures",
  "1537": " woods",
  "1538": "outh",
  "1539": " mouth",
  "1540": " paint",
  "1541": " After",
  "1542": "uddy",
  "1543": " waved",
  "1544": " set",
  "1545": "ower",
  "1546": " enjoyed",
  "1547": "room",
  "1548": " spot",
  "1549": " alone",
  "1550": " pot",
  "1551": " cont",
  "1552": "This",
  "1553": " sea",
  "1554": " brother",
  "1555": "ds",
  "1556": " likes",
  "1557": "art",
  "1558": "oun",
  "1559": "amp",
  "1560": "Her",
  "1561": " tight",
  "1562": "\".",
  "1563": " year",
  "1564": " threw",
  "1565": " heavy",
  "1566": " white",
  "1567": " followed",
  "1568": " quickly",
  "1569": " gent",
  "1570": " butterfly",
  "1571": "ins",
  "1572": "Spot",
  "1573": " miss",
  "1574": " cookies",
  "1575": "ape",
  "1576": " ju",
  "1577": " deep",
  "1578": "asure",
  "1579": "olly",
  "1580": " everywhere",
  "1581": "de",
  "1582": "Lucy",
  "1583": "ze",
  "1584": " bee",
  "1585": " pat",
  "1586": "oe",
  "1587": " John",
  "1588": "ries",
  "1589": "aught",
  "1590": " mar",
  "1591": "Bob",
  "1592": " world",
  "1593": "ister",
  "1594": "cle",
  "1595": " clot",
  "1596": " wrong",
  "1597": " clothes",
  "1598": " castle",
  "1599": " cre",
  "1600": " wear",
  "1601": "less",
  "1602": "lc",
  "1603": " pu",
  "1604": "ross",
  "1605": " mum",
  "1606": " button",
  "1607": " leaf",
  "1608": "iet",
  "1609": " nap",
  "1610": " Buddy",
  "1611": " ve",
  "1612": "ner",
  "1613": " quiet",
  "1614": " mix",
  "1615": " key",
  "1616": "arent",
  "1617": " makes",
  "1618": "ang",
  "1619": " brought",
  "1620": " round",
  "1621": "row",
  "1622": " parent",
  "1623": "ully",
  "1624": "ued",
  "1625": "rot",
  "1626": " wants",
  "1627": " well",
  "1628": " himself",
  "1629": " Daisy",
  "1630": "os",
  "1631": " won",
  "1632": " ride",
  "1633": " delic",
  "1634": " field",
  "1635": "man",
  "1636": " danced",
  "1637": " break",
  "1638": " arm",
  "1639": " tower",
  "1640": " Lila",
  "1641": "Do",
  "1642": " sign",
  "1643": " What",
  "1644": "fully",
  "1645": " snack",
  "1646": " hit",
  "1647": "thy",
  "1648": " drag",
  "1649": " faster",
  "1650": " king",
  "1651": " gift",
  "1652": " talked",
  "1653": " forgot",
  "1654": " wish",
  "1655": " leg",
  "1656": " beach",
  "1657": "gg",
  "1658": " sister",
  "1659": " river",
  "1660": " mus",
  "1661": "cess",
  "1662": "ence",
  "1663": " finished",
  "1664": " branch",
  "1665": " dry",
  "1666": " comp",
  "1667": "leph",
  "1668": "ves",
  "1669": "itten",
  "1670": "cy",
  "1671": " sharing",
  "1672": "From",
  "1673": " pol",
  "1674": " bike",
  "1675": " Inside",
  "1676": " dinner",
  "1677": " dragon",
  "1678": " fur",
  "1679": "ards",
  "1680": " ra",
  "1681": " danger",
  "1682": " rel",
  "1683": " em",
  "1684": " really",
  "1685": " bor",
  "1686": "ipp",
  "1687": " vis",
  "1688": " understand",
  "1689": " shin",
  "1690": "ance",
  "1691": " To",
  "1692": " black",
  "1693": "John",
  "1694": "ren",
  "1695": " bottle",
  "1696": " monkey",
  "1697": " fox",
  "1698": "His",
  "1699": "eddy",
  "1700": " monster",
  "1701": " pig",
  "1702": " smart",
  "1703": " At",
  "1704": " poin",
  "1705": " worried",
  "1706": " rocks",
  "1707": " contin",
  "1708": "Amy",
  "1709": " gu",
  "1710": " carefully",
  "1711": " bowl",
  "1712": " someone",
  "1713": "imi",
  "1714": "ctor",
  "1715": " fairy",
  "1716": " today",
  "1717": " att",
  "1718": "ast",
  "1719": " filled",
  "1720": " side",
  "1721": " pudd",
  "1722": " eating",
  "1723": "ush",
  "1724": " welc",
  "1725": " el",
  "1726": "ses",
  "1727": "vel",
  "1728": " gi",
  "1729": " cow",
  "1730": " boun",
  "1731": "itting",
  "1732": " snake",
  "1733": " brown",
  "1734": "ead",
  "1735": " whe",
  "1736": " promised",
  "1737": " fan",
  "1738": "While",
  "1739": " silly",
  "1740": " pet",
  "1741": " happen",
  "1742": "Just",
  "1743": " everything",
  "1744": " yes",
  "1745": "ts",
  "1746": " res",
  "1747": " parents",
  "1748": " Soon",
  "1749": " Maybe",
  "1750": " soup",
  "1751": " visit",
  "1752": " music",
  "1753": " mud",
  "1754": " letter",
  "1755": "ated",
  "1756": " free",
  "1757": " else",
  "1758": " pieces",
  "1759": " road",
  "1760": " children",
  "1761": "stead",
  "1762": " bite",
  "1763": " shop",
  "1764": " sang",
  "1765": " continued",
  "1766": "Fin",
  "1767": " talking",
  "1768": " perfect",
  "1769": " kite",
  "1770": "zz",
  "1771": " flying",
  "1772": " egg",
  "1773": " smiles",
  "1774": " throw",
  "1775": " realized",
  "1776": " Billy",
  "1777": " mail",
  "1778": " ear",
  "1779": " Sarah",
  "1780": "ord",
  "1781": " words",
  "1782": " Em",
  "1783": ".”",
  "1784": " amazing",
  "1785": "cket",
  "1786": " laughing",
  "1787": " jar",
  "1788": " wagged",
  "1789": " orange",
  "1790": " que",
  "1791": " sec",
  "1792": " moved",
  "1793": " sitting",
  "1794": " enough",
  "1795": " closed",
  "1796": " Z",
  "1797": " pass",
  "1798": " without",
  "1799": " shining",
  "1800": " mother",
  "1801": "gly",
  "1802": " smo",
  "1803": " stand",
  "1804": " crab",
  "1805": " buck",
  "1806": " sail",
  "1807": " rope",
  "1808": " dangerous",
  "1809": "fort",
  "1810": " strange",
  "1811": " secret",
  "1812": " barked",
  "1813": " bath",
  "1814": " stu",
  "1815": " tasty",
  "1816": " drink",
  "1817": " Mimi",
  "1818": "unch",
  "1819": " welcome",
  "1820": "fish",
  "1821": "ella",
  "1822": " paw",
  "1823": "used",
  "1824": "iver",
  "1825": "board",
  "1826": " crying",
  "1827": " whist",
  "1828": " past",
  "1829": " heal",
  "1830": " ce",
  "1831": "ises",
  "1832": " lon",
  "1833": " candy",
  "1834": " living",
  "1835": " Joe",
  "1836": " -",
  "1837": " higher",
  "1838": "ches",
  "1839": "Maybe",
  "1840": " lonely",
  "1841": " pre",
  "1842": " owner",
  "1843": " Ch",
  "1844": " shoes",
  "1845": " belie",
  "1846": " sack",
  "1847": " farmer",
  "1848": "Please",
  "1849": " morning",
  "1850": "chool",
  "1851": "ato",
  "1852": "arm",
  "1853": " tom",
  "1854": " Jen",
  "1855": "gy",
  "1856": " swings",
  "1857": " delicious",
  "1858": " purp",
  "1859": "ract",
  "1860": " school",
  "1861": "llie",
  "1862": "isk",
  "1863": " scream",
  "1864": " teac",
  "1865": "ible",
  "1866": " push",
  "1867": " finally",
  "1868": "!”",
  "1869": " stone",
  "1870": " rolled",
  "1871": " ph",
  "1872": " grandma",
  "1873": "lephant",
  "1874": "lder",
  "1875": "Mommy",
  "1876": " puddle",
  "1877": "ich",
  "1878": " stre",
  "1879": " dolls",
  "1880": "me",
  "1881": " Bl",
  "1882": " getting",
  "1883": " blank",
  "1884": "ire",
  "1885": "ama",
  "1886": " purple",
  "1887": " lake",
  "1888": " asks",
  "1889": "lla",
  "1890": "asket",
  "1891": " years",
  "1892": " trou",
  "1893": " shell",
  "1894": " mad",
  "1895": "ased",
  "1896": " caught",
  "1897": " blanket",
  "1898": " corn",
  "1899": "set",
  "1900": " treasure",
  "1901": " wore",
  "1902": " runs",
  "1903": " money",
  "1904": "ub",
  "1905": " basket",
  "1906": " hoped",
  "1907": "ons",
  "1908": " pile",
  "1909": "iskers",
  "1910": " same",
  "1911": "eo",
  "1912": " singing",
  "1913": "app",
  "1914": " herself",
  "1915": "ey",
  "1916": " wings",
  "1917": " pers",
  "1918": " apples",
  "1919": "cks",
  "1920": " cute",
  "1921": " ben",
  "1922": "br",
  "1923": " mine",
  "1924": " je",
  "1925": " bat",
  "1926": " Tommy",
  "1927": "igh",
  "1928": " plane",
  "1929": " gentle",
  "1930": " carrot",
  "1931": " cray",
  "1932": "\n ",
  "1933": " teacher",
  "1934": " elephant",
  "1935": " coat",
  "1936": " sear",
  "1937": " pill",
  "1938": " dropped",
  "1939": " balls",
  "1940": " start",
  "1941": " fit",
  "1942": " teddy",
  "1943": " days",
  "1944": "thday",
  "1945": "irthday",
  "1946": " cour",
  "1947": " doctor",
  "1948": "Finally",
  "1949": "ined",
  "1950": " war",
  "1951": " course",
  "1952": " forever",
  "1953": "aughty",
  "1954": " woke",
  "1955": " joy",
  "1956": " naughty",
  "1957": " hiding",
  "1958": " seed",
  "1959": " card",
  "1960": " promise",
  "1961": " min",
  "1962": " bring",
  "1963": "ilk",
  "1964": " Whiskers",
  "1965": " most",
  "1966": " arri",
  "1967": " teach",
  "1968": " spin",
  "1969": " cookie",
  "1970": " cr",
  "1971": " band",
  "1972": "umpy",
  "1973": "ol",
  "1974": "ator",
  "1975": " shap",
  "1976": " fence",
  "1977": " chee",
  "1978": " rob",
  "1979": " bush",
  "1980": " Gra",
  "1981": " Blue",
  "1982": " thinks",
  "1983": " shr",
  "1984": " milk",
  "1985": " lunch",
  "1986": " ugly",
  "1987": " eas",
  "1988": " birthday",
  "1989": "arp",
  "1990": " nose",
  "1991": " touc",
  "1992": "ose",
  "1993": " juice",
  "1994": " Thank",
  "1995": " vill",
  "1996": " ob",
  "1997": " grew",
  "1998": " bow",
  "1999": " pop",
  "2000": " belong",
  "2001": "sw",
  "2002": " shapes",
  "2003": " answ",
  "2004": "fused",
  "2005": "itch",
  "2006": "ipped",
  "2007": " sharp",
  "2008": " Fred",
  "2009": "ass",
  "2010": "ail",
  "2011": " creat",
  "2012": " young",
  "2013": " heart",
  "2014": "umber",
  "2015": "sy",
  "2016": "irt",
  "2017": " bench",
  "2018": "ier",
  "2019": " street",
  "2020": " Bella",
  "2021": "bow",
  "2022": "'ll",
  "2023": " Leo",
  "2024": " seem",
  "2025": "Jack",
  "2026": " bone",
  "2027": "erry",
  "2028": " wra",
  "2029": " mark",
  "2030": " late",
  "2031": " able",
  "2032": "sc",
  "2033": "eter",
  "2034": "ball",
  "2035": "ale",
  "2036": " believe",
  "2037": " rocket",
  "2038": " zoom",
  "2039": " bucket",
  "2040": " coin",
  "2041": " bread",
  "2042": " robot",
  "2043": " pocket",
  "2044": " power",
  "2045": " magical",
  "2046": " dirt",
  "2047": " touched",
  "2048": " spoon",
  "2049": " shy",
  "2050": " kiss",
  "2051": " inc",
  "2052": " slowly",
  "2053": " shook",
  "2054": " busy",
  "2055": " twins",
  "2056": " kitten",
  "2057": " prob",
  "2058": " cheered",
  "2059": " arrived",
  "2060": " shake",
  "2061": " feels",
  "2062": " lem",
  "2063": " craw",
  "2064": " seat",
  "2065": " neck",
  "2066": " carry",
  "2067": " trip",
  "2068": " storm",
  "2069": "ling",
  "2070": " amazed",
  "2071": "ung",
  "2072": " spo",
  "2073": " few",
  "2074": "eared",
  "2075": " village",
  "2076": "igg",
  "2077": "OK",
  "2078": " bell",
  "2079": "lem",
  "2080": "idge",
  "2081": " taking",
  "2082": " stories",
  "2083": " patient",
  "2084": " grumpy",
  "2085": " fixed",
  "2086": " coll",
  "2087": "oose",
  "2088": " problem",
  "2089": " nut",
  "2090": "urtle",
  "2091": "ost",
  "2092": " wheel",
  "2093": "Good",
  "2094": " sounds",
  "2095": " wonderful",
  "2096": " live",
  "2097": " gray",
  "2098": " dist",
  "2099": "irp",
  "2100": " rainbow",
  "2101": "una",
  "2102": " wave",
  "2103": " towards",
  "2104": " sug",
  "2105": " huge",
  "2106": " spark",
  "2107": " rude",
  "2108": " driver",
  "2109": " hor",
  "2110": " cover",
  "2111": "ors",
  "2112": "fortable",
  "2113": " whistle",
  "2114": " songs",
  "2115": " cart",
  "2116": " Mark",
  "2117": " cir",
  "2118": "emy",
  "2119": " wide",
  "2120": " Momo",
  "2121": " sal",
  "2122": "epend",
  "2123": "Lila",
  "2124": " rec",
  "2125": " des",
  "2126": "unt",
  "2127": "ens",
  "2128": " string",
  "2129": " disapp",
  "2130": "kin",
  "2131": "elly",
  "2132": "bble",
  "2133": " treats",
  "2134": " suc",
  "2135": "pping",
  "2136": " path",
  "2137": " meet",
  "2138": "iling",
  "2139": " upset",
  "2140": " holding",
  "2141": " cheese",
  "2142": "alm",
  "2143": " moon",
  "2144": "oph",
  "2145": "Be",
  "2146": " turtle",
  "2147": " worm",
  "2148": " wild",
  "2149": "Of",
  "2150": "ourn",
  "2151": "Sure",
  "2152": " lay",
  "2153": " hugs",
  "2154": " N",
  "2155": " grab",
  "2156": " fighting",
  "2157": " life",
  "2158": " giant",
  "2159": " di",
  "2160": " puppy",
  "2161": " peace",
  "2162": " journ",
  "2163": " bugs",
  "2164": "umb",
  "2165": "ring",
  "2166": " smooth",
  "2167": " jew",
  "2168": "adow",
  "2169": " note",
  "2170": " joke",
  "2171": " ban",
  "2172": " noises",
  "2173": " jewel",
  "2174": " cloth",
  "2175": " Just",
  "2176": " Emma",
  "2177": " smelly",
  "2178": " sour",
  "2179": " mist",
  "2180": " honey",
  "2181": "ountain",
  "2182": " lucky",
  "2183": " inv",
  "2184": " ser",
  "2185": " landed",
  "2186": " cou",
  "2187": "ular",
  "2188": "izzy",
  "2189": "onest",
  "2190": " On",
  "2191": "pper",
  "2192": " net",
  "2193": "St",
  "2194": " thin",
  "2195": " rad",
  "2196": " cave",
  "2197": "aur",
  "2198": " princess",
  "2199": " honest",
  "2200": " beak",
  "2201": " Ann",
  "2202": "not",
  "2203": "ife",
  "2204": " jelly",
  "2205": " drive",
  "2206": " boss",
  "2207": "isa",
  "2208": " part",
  "2209": " chew",
  "2210": " banan",
  "2211": "ery",
  "2212": " seek",
  "2213": " cannot",
  "2214": " missed",
  "2215": " act",
  "2216": " Molly",
  "2217": " stars",
  "2218": " med",
  "2219": " ba",
  "2220": "ove",
  "2221": " dogs",
  "2222": "read",
  "2223": " suddenly",
  "2224": " sick",
  "2225": " ign",
  "2226": "sp",
  "2227": " oven",
  "2228": " drove",
  "2229": "lower",
  "2230": " bri",
  "2231": " tea",
  "2232": " step",
  "2233": " splas",
  "2234": " Finally",
  "2235": " shelf",
  "2236": "iger",
  "2237": " exp",
  "2238": " snowman",
  "2239": " wasn",
  "2240": " instead",
  "2241": "Hey",
  "2242": " taste",
  "2243": " foot",
  "2244": " fle",
  "2245": " Dog",
  "2246": " maybe",
  "2247": " ducks",
  "2248": "ope",
  "2249": "ert",
  "2250": "Later",
  "2251": " sel",
  "2252": " across",
  "2253": "ateful",
  "2254": " sandw",
  "2255": " helpful",
  "2256": " fancy",
  "2257": " adventures",
  "2258": "est",
  "2259": " bought",
  "2260": " wash",
  "2261": " organ",
  "2262": "ian",
  "2263": "ere",
  "2264": " cross",
  "2265": "To",
  "2266": " line",
  "2267": " glow",
  "2268": " Remy",
  "2269": " grateful",
  "2270": " comes",
  "2271": " slid",
  "2272": " forget",
  "2273": " confused",
  "2274": " ash",
  "2275": "let",
  "2276": "idy",
  "2277": " spe",
  "2278": " puzz",
  "2279": " pillow",
  "2280": " healthy",
  "2281": " change",
  "2282": " pract",
  "2283": " dish",
  "2284": " zoo",
  "2285": " Ollie",
  "2286": "oomy",
  "2287": "oppy",
  "2288": " val",
  "2289": " stepped",
  "2290": "erest",
  "2291": " last",
  "2292": " lad",
  "2293": " interest",
  "2294": " cap",
  "2295": " selfish",
  "2296": " elder",
  "2297": " cho",
  "2298": "ity",
  "2299": " working",
  "2300": " whole",
  "2301": " elderly",
  "2302": " easy",
  "2303": "ward",
  "2304": " watching",
  "2305": " sticks",
  "2306": " hope",
  "2307": " anyone",
  "2308": "col",
  "2309": " messy",
  "2310": " calm",
  "2311": "amed",
  "2312": " takes",
  "2313": " save",
  "2314": " pri",
  "2315": " forgive",
  "2316": " daddy",
  "2317": " chased",
  "2318": "ize",
  "2319": "irpy",
  "2320": " weak",
  "2321": " team",
  "2322": " myster",
  "2323": " av",
  "2324": " write",
  "2325": " shirt",
  "2326": " ladder",
  "2327": "oc",
  "2328": " wolf",
  "2329": " tape",
  "2330": "to",
  "2331": "pect",
  "2332": " splash",
  "2333": " lemon",
  "2334": " legs",
  "2335": " clever",
  "2336": " Sp",
  "2337": " phone",
  "2338": " mind",
  "2339": " horse",
  "2340": " feather",
  "2341": " plants",
  "2342": " person",
  "2343": " longer",
  "2344": "ider",
  "2345": " tidy",
  "2346": " stret",
  "2347": " prot",
  "2348": " pour",
  "2349": " jog",
  "2350": "ork",
  "2351": "ever",
  "2352": " emp",
  "2353": "izz",
  "2354": "Soon",
  "2355": " pan",
  "2356": " later",
  "2357": " empty",
  "2358": " bark",
  "2359": " along",
  "2360": " Cat",
  "2361": "Sally",
  "2362": " seemed",
  "2363": " faces",
  "2364": " boot",
  "2365": " Bu",
  "2366": " pretended",
  "2367": " lock",
  "2368": " cozy",
  "2369": "bbles",
  "2370": " sleepy",
  "2371": " lift",
  "2372": "ions",
  "2373": " hum",
  "2374": "iting",
  "2375": " waiting",
  "2376": " stir",
  "2377": " saved",
  "2378": " su",
  "2379": " finish",
  "2380": "llo",
  "2381": " swimm",
  "2382": " mach",
  "2383": "pill",
  "2384": "pillar",
  "2385": "Come",
  "2386": " ret",
  "2387": "ually",
  "2388": "ained",
  "2389": "?”",
  "2390": " spicy",
  "2391": " cheer",
  "2392": " chick",
  "2393": " bounce",
  "2394": " Come",
  "2395": " screamed",
  "2396": " return",
  "2397": " ring",
  "2398": " goat",
  "2399": " Lisa",
  "2400": " ent",
  "2401": "ult",
  "2402": " pool",
  "2403": " fake",
  "2404": " Chirpy",
  "2405": "den",
  "2406": " jumping",
  "2407": " Daddy",
  "2408": " supp",
  "2409": " such",
  "2410": " interesting",
  "2411": " wondered",
  "2412": " tie",
  "2413": " clouds",
  "2414": " print",
  "2415": " pin",
  "2416": " mistake",
  "2417": " fruits",
  "2418": " Ducky",
  "2419": "unk",
  "2420": " drank",
  "2421": "ocked",
  "2422": " spray",
  "2423": "erpillar",
  "2424": " though",
  "2425": " plate",
  "2426": " eag",
  "2427": " caterpillar",
  "2428": " stra",
  "2429": " bossy",
  "2430": " Together",
  "2431": "issors",
  "2432": "dge",
  "2433": "box",
  "2434": " onto",
  "2435": " gather",
  "2436": "eth",
  "2437": " kick",
  "2438": " drew",
  "2439": " building",
  "2440": " Benny",
  "2441": " swimming",
  "2442": " scissors",
  "2443": " machine",
  "2444": "lebr",
  "2445": " rich",
  "2446": " With",
  "2447": " TV",
  "2448": "ormal",
  "2449": " sheep",
  "2450": " number",
  "2451": " hidden",
  "2452": " gives",
  "2453": " celebr",
  "2454": " St",
  "2455": " Ella",
  "2456": "ont",
  "2457": " normal",
  "2458": "oof",
  "2459": "ek",
  "2460": " wing",
  "2461": " brush",
  "2462": "Kitty",
  "2463": " lovely",
  "2464": " furry",
  "2465": " explor",
  "2466": " crayons",
  "2467": " cleaned",
  "2468": " arms",
  "2469": " trouble",
  "2470": " glue",
  "2471": " front",
  "2472": "ment",
  "2473": "izza",
  "2474": "aced",
  "2475": " spider",
  "2476": " penc",
  "2477": " pack",
  "2478": " fing",
  "2479": " cher",
  "2480": " My",
  "2481": " sugar",
  "2482": " pointed",
  "2483": " pencil",
  "2484": " match",
  "2485": " lar",
  "2486": " cage",
  "2487": " Doggy",
  "2488": "elp",
  "2489": " mel",
  "2490": " appeared",
  "2491": " Their",
  "2492": " Bunny",
  "2493": "urse",
  "2494": " puts",
  "2495": " smelled",
  "2496": " prince",
  "2497": "osaur",
  "2498": "oop",
  "2499": "ned",
  "2500": " sur",
  "2501": " pray",
  "2502": " gently",
  "2503": " gate",
  "2504": " Luna",
  "2505": " Grandma",
  "2506": "yard",
  "2507": " search",
  "2508": " matter",
  "2509": " dinosaur",
  "2510": " backyard",
  "2511": "And",
  "2512": " fear",
  "2513": " fil",
  "2514": " drum",
  "2515": "pa",
  "2516": " ship",
  "2517": " class",
  "2518": " towel",
  "2519": " queen",
  "2520": " gun",
  "2521": " circle",
  "2522": " van",
  "2523": " smiling",
  "2524": " couch",
  "2525": " Go",
  "2526": "aughter",
  "2527": " tear",
  "2528": " nearby",
  "2529": " imag",
  "2530": " icy",
  "2531": " yelled",
  "2532": " ashamed",
  "2533": " powerful",
  "2534": "gest",
  "2535": " wand",
  "2536": " quest",
  "2537": " places",
  "2538": " flag",
  "2539": " cri",
  "2540": " Somet",
  "2541": " Jerry",
  "2542": "Help",
  "2543": " law",
  "2544": "lev",
  "2545": " wom",
  "2546": " lamp",
  "2547": " af",
  "2548": " Why",
  "2549": "orrow",
  "2550": "icked",
  "2551": " woman",
  "2552": " pizza",
  "2553": " mir",
  "2554": " large",
  "2555": " daughter",
  "2556": " carried",
  "2557": " Mama",
  "2558": "My",
  "2559": " wrap",
  "2560": " trust",
  "2561": " journey",
  "2562": " glass",
  "2563": " ap",
  "2564": "ym",
  "2565": "Stop",
  "2566": " true",
  "2567": " rub",
  "2568": " neigh",
  "2569": " gas",
  "2570": " Jim",
  "2571": "vous",
  "2572": "ror",
  "2573": "ones",
  "2574": " tries",
  "2575": " neighb",
  "2576": " bal",
  "2577": "ique",
  "2578": " unique",
  "2579": " jeep",
  "2580": " ignor",
  "2581": " emb",
  "2582": " Jill",
  "2583": "isp",
  "2584": "ensive",
  "2585": " wearing",
  "2586": " fright",
  "2587": " expensive",
  "2588": " tomorrow",
  "2589": " hur",
  "2590": " goes",
  "2591": " If",
  "2592": "itter",
  "2593": " loves",
  "2594": " dizzy",
  "2595": " Be",
  "2596": "ced",
  "2597": " weird",
  "2598": " saf",
  "2599": " dig",
  "2600": " ants",
  "2601": "ugg",
  "2602": "raid",
  "2603": " these",
  "2604": " mirror",
  "2605": " hello",
  "2606": " dancing",
  "2607": " chase",
  "2608": " Bobby",
  "2609": " spring",
  "2610": " reg",
  "2611": " afraid",
  "2612": " scar",
  "2613": " nothing",
  "2614": " Br",
  "2615": "rass",
  "2616": "arrass",
  "2617": " poor",
  "2618": " frightened",
  "2619": " Tiny",
  "2620": "ndpa",
  "2621": "mer",
  "2622": "kn",
  "2623": " whisp",
  "2624": " test",
  "2625": " ner",
  "2626": " lazy",
  "2627": " embarrass",
  "2628": " eager",
  "2629": " cand",
  "2630": "iff",
  "2631": " protect",
  "2632": "aw",
  "2633": " tomato",
  "2634": " stood",
  "2635": " dest",
  "2636": "ness",
  "2637": "known",
  "2638": " success",
  "2639": " nervous",
  "2640": "bby",
  "2641": " splashed",
  "2642": " puzzle",
  "2643": " bridge",
  "2644": " wis",
  "2645": " wip",
  "2646": " unknown",
  "2647": " pay",
  "2648": " clay",
  "2649": " bake",
  "2650": " incred",
  "2651": " impress",
  "2652": " gold",
  "2653": " gigg",
  "2654": " gen",
  "2655": " decor",
  "2656": " creative",
  "2657": "ventually",
  "2658": "ina",
  "2659": " feet",
  "2660": "era",
  "2661": " incredible",
  "2662": " Rex",
  "2663": " tent",
  "2664": " sol",
  "2665": " sock",
  "2666": " sandwich",
  "2667": " lead",
  "2668": " teeth",
  "2669": " swan",
  "2670": "any",
  "2671": " useful",
  "2672": " clock",
  "2673": " Mary",
  "2674": " How",
  "2675": "ute",
  "2676": "ual",
  "2677": " steak",
  "2678": " respect",
  "2679": " boring",
  "2680": " Bird",
  "2681": " Bear",
  "2682": "berry",
  "2683": " straw",
  "2684": " square",
  "2685": " soap",
  "2686": " disco",
  "2687": "lves",
  "2688": " pres",
  "2689": " mixed",
  "2690": " fool",
  "2691": " closet",
  "2692": "owed",
  "2693": " potato",
  "2694": " peaceful",
  "2695": " pump",
  "2696": " mask",
  "2697": " knocked",
  "2698": "cream",
  "2699": "airs",
  "2700": " whale",
  "2701": " sword",
  "2702": " mysterious",
  "2703": " famous",
  "2704": " burn",
  "2705": "upid",
  "2706": "Tommy",
  "2707": " har",
  "2708": " gener",
  "2709": " bean",
  "2710": " Andy",
  "2711": "we",
  "2712": "rated",
  "2713": " yog",
  "2714": " sold",
  "2715": " shark",
  "2716": " answer",
  "2717": " 3",
  "2718": " sco",
  "2719": "cient",
  "2720": "bled",
  "2721": "arl",
  "2722": " wouldn",
  "2723": " rug",
  "2724": " polite",
  "2725": " kicked",
  "2726": " feed",
  "2727": " Please",
  "2728": "erri",
  "2729": "com",
  "2730": " snacks",
  "2731": " measure",
  "2732": " jam",
  "2733": " disg",
  "2734": " ancient",
  "2735": " relie",
  "2736": " corner",
  "2737": " blow",
  "2738": "ond",
  "2739": " space",
  "2740": " noisy",
  "2741": " esc",
  "2742": "reen",
  "2743": "ote",
  "2744": "imp",
  "2745": " spread",
  "2746": " scarf",
  "2747": " branches",
  "2748": "ormous",
  "2749": " stupid",
  "2750": " painted",
  "2751": " chocol",
  "2752": " Don",
  "2753": "rob",
  "2754": " shoe",
  "2755": " rough",
  "2756": " march",
  "2757": " eggs",
  "2758": " wagon",
  "2759": " paws",
  "2760": "uce",
  "2761": " study",
  "2762": " moms",
  "2763": " frust",
  "2764": " disgust",
  "2765": " dead",
  "2766": " dug",
  "2767": " crown",
  "2768": "robe",
  "2769": " terri",
  "2770": " foolish",
  "2771": " barn",
  "2772": " Sometimes",
  "2773": "enny",
  "2774": "Dad",
  "2775": " steal",
  "2776": " sell",
  "2777": " rare",
  "2778": " present",
  "2779": " mis",
  "2780": " enormous",
  "2781": "getable",
  "2782": " vegetable",
  "2783": " understood",
  "2784": " scare",
  "2785": " salad",
  "2786": " medic",
  "2787": " disgusting",
  "2788": " chocolate",
  "2789": " banana",
  "2790": " bald",
  "2791": "ighed",
  "2792": "edient",
  "2793": "corn",
  "2794": "ado",
  "2795": " stuff",
  "2796": " medicine",
  "2797": " hero",
  "2798": " generous",
  "2799": " clap",
  "2800": "fic",
  "2801": " group",
  "2802": " goose",
  "2803": " diffic",
  "2804": " bitter",
  "2805": "pes",
  "2806": " thick",
  "2807": " roar",
  "2808": " perform",
  "2809": " mush",
  "2810": " frustrated",
  "2811": " difficult",
  "2812": " breath",
  "2813": " Sammy",
  "2814": " Instead",
  "2815": " tick",
  "2816": " smaller",
  "2817": " shadow",
  "2818": " melon",
  "2819": " market",
  "2820": " covered",
  "2821": " Pe",
  "2822": "uitar",
  "2823": " tasted",
  "2824": " ord",
  "2825": " obedient",
  "2826": " guitar",
  "2827": "roy",
  "2828": "port",
  "2829": "orry",
  "2830": "mb",
  "2831": " wake",
  "2832": "alk",
  "2833": " lab",
  "2834": " hang",
  "2835": " horn",
  "2836": " destroy",
  "2837": " Some",
  "2838": "inal",
  "2839": "asses",
  "2840": " toug",
  "2841": " ref",
  "2842": " mountain",
  "2843": " mot",
  "2844": " bored",
  "2845": " asleep",
  "2846": "aking",
  "2847": "Timmy",
  "2848": " which",
  "2849": " taught",
  "2850": " standing",
  "2851": "usual",
  "2852": "land",
  "2853": " relieved",
  "2854": " harm",
  "2855": " become",
  "2856": " Brown",
  "2857": " tough",
  "2858": " terrible",
  "2859": " suit",
  "2860": " joined",
  "2861": "ungle",
  "2862": "atter",
  "2863": "alous",
  "2864": " squash",
  "2865": " pebble",
  "2866": " mushroom",
  "2867": " moving",
  "2868": " jealous",
  "2869": " exploring",
  "2870": "iginal",
  "2871": "fted",
  "2872": "als",
  "2873": " yourself",
  "2874": " parrot",
  "2875": " knife",
  "2876": " jungle",
  "2877": " adm",
  "2878": "Together",
  "2879": "Here",
  "2880": " unusual",
  "2881": " tun",
  "2882": " pumpkin",
  "2883": " discover",
  "2884": " clear",
  "2885": " asking",
  "2886": " spoiled",
  "2887": " prize",
  "2888": " dull",
  "2889": "ulb",
  "2890": "atch",
  "2891": " sunf",
  "2892": " fat",
  "2893": " chicken",
  "2894": " tiger",
  "2895": " popcorn",
  "2896": " nuts",
  "2897": " mighty",
  "2898": " thoughtful",
  "2899": " hears",
  "2900": " fine",
  "2901": " comb",
  "2902": " bulb",
  "2903": "ume",
  "2904": "mp",
  "2905": "ident",
  "2906": " vase",
  "2907": " twist",
  "2908": " tool",
  "2909": " stri",
  "2910": " seeds",
  "2911": " sque",
  "2912": " hay",
  "2913": " Poppy",
  "2914": "rag",
  "2915": "erce",
  "2916": " original",
  "2917": " fierce",
  "2918": " drop",
  "2919": " ind",
  "2920": " snee",
  "2921": " ending",
  "2922": " drawing",
  "2923": " cop",
  "2924": " Will",
  "2925": " thankful",
  "2926": " island",
  "2927": " carrots",
  "2928": "umsy",
  "2929": "Inside",
  "2930": " spent",
  "2931": " relax",
  "2932": " muff",
  "2933": " embarrassed",
  "2934": " cheap",
  "2935": " cro",
  "2936": "selves",
  "2937": " troubled",
  "2938": " mic",
  "2939": " knowing",
  "2940": " fold",
  "2941": " eng",
  "2942": " clown",
  "2943": " bloom",
  "2944": " aunt",
  "2945": "oto",
  "2946": "comfortable",
  "2947": "Are",
  "2948": " temp",
  "2949": " sunflower",
  "2950": " record",
  "2951": " frown",
  "2952": " finding",
  "2953": " balance",
  "2954": " Tr",
  "2955": " uncomfortable",
  "2956": " lose",
  "2957": " hats",
  "2958": " chest",
  "2959": " Many",
  "2960": " '",
  "2961": "ser",
  "2962": "irsty",
  "2963": "cean",
  "2964": " shoot",
  "2965": " ocean",
  "2966": " guess",
  "2967": " exciting",
  "2968": " cone",
  "2969": " adventur",
  "2970": " add",
  "2971": " Sunny",
  "2972": " Al",
  "2973": "xible",
  "2974": "iness",
  "2975": "ilt",
  "2976": " stamp",
  "2977": " lifted",
  "2978": " acorn",
  "2979": "yal",
  "2980": "opard",
  "2981": "dle",
  "2982": " trick",
  "2983": " seal",
  "2984": " scatter",
  "2985": " clumsy",
  "2986": " Jenny",
  "2987": "angle",
  "2988": "ages",
  "2989": "Sorry",
  "2990": " wrote",
  "2991": " pasta",
  "2992": " hairy",
  "2993": " cush",
  "2994": " adventurous",
  "2995": "lace",
  "2996": "Where",
  "2997": " unl",
  "2998": " picks",
  "2999": " necklace",
  "3000": " loyal",
  "3001": " crazy",
  "3002": " cats",
  "3003": " body",
  "3004": " arrow",
  "3005": "ti",
  "3006": "erries",
  "3007": " tells",
  "3008": " stubb",
  "3009": " hose",
  "3010": " harmless",
  "3011": " exam",
  "3012": " depend",
  "3013": " comfortable",
  "3014": " cost",
  "3015": " brace",
  "3016": " berries",
  "3017": "xious",
  "3018": "urkey",
  "3019": "iant",
  "3020": "amond",
  "3021": "apped",
  "3022": " searched",
  "3023": " deliver",
  "3024": " behave",
  "3025": "tti",
  "3026": "hetti",
  "3027": "aghetti",
  "3028": " organized",
  "3029": " engine",
  "3030": " diamond",
  "3031": " anxious",
  "3032": "gu",
  "3033": "ependent",
  "3034": "Molly",
  "3035": " stubborn",
  "3036": " remind",
  "3037": " mov",
  "3038": " fis",
  "3039": " crayon",
  "3040": " collect",
  "3041": "light",
  "3042": " thirsty",
  "3043": " turkey",
  "3044": " swe",
  "3045": " stretch",
  "3046": " scr",
  "3047": " practiced",
  "3048": " playful",
  "3049": " Emily",
  "3050": "host",
  "3051": "anged",
  "3052": " word",
  "3053": " tied",
  "3054": " pir",
  "3055": " mailbox",
  "3056": " jug",
  "3057": " gloomy",
  "3058": " frag",
  "3059": " envel",
  "3060": " env",
  "3061": " bubbles",
  "3062": "lph",
  "3063": "illa",
  "3064": "dile",
  "3065": "codile",
  "3066": "ants",
  "3067": " yours",
  "3068": " spaghetti",
  "3069": " rep",
  "3070": " raced",
  "3071": " prun",
  "3072": " police",
  "3073": " independent",
  "3074": " flexible",
  "3075": " crawl",
  "3076": " bathroom",
  "3077": " barber",
  "3078": "How",
  "3079": " sil",
  "3080": " pro",
  "3081": " escape",
  "3082": " deer",
  "3083": " crack",
  "3084": " Even",
  "3085": " pige",
  "3086": " passed",
  "3087": " motor",
  "3088": " liz",
  "3089": " ghost",
  "3090": " fragile",
  "3091": " U",
  "3092": "aff",
  "3093": " needs",
  "3094": " jolly",
  "3095": " dependable",
  "3096": " deaf",
  "3097": " celebrate",
  "3098": "shine",
  "3099": "io",
  "3100": " wheat",
  "3101": " stove",
  "3102": " roof",
  "3103": " rat",
  "3104": " fig",
  "3105": " dove",
  "3106": " dolph",
  "3107": " chess",
  "3108": " bees",
  "3109": " While",
  "3110": "cident",
  "3111": " stat",
  "3112": " raven",
  "3113": " leopard",
  "3114": " flash",
  "3115": " crocodile",
  "3116": " brill",
  "3117": " attic",
  "3118": "nic",
  "3119": " yarn",
  "3120": " sung",
  "3121": " shows",
  "3122": " painting",
  "3123": " press",
  "3124": " map",
  "3125": " log",
  "3126": " explained",
  "3127": " changed",
  "3128": " brilliant",
  "3129": " boys",
  "3130": "ground",
  "3131": "Their",
  "3132": "If",
  "3133": " weal",
  "3134": " thu",
  "3135": " picnic",
  "3136": " humble",
  "3137": " colour",
  "3138": " zip",
  "3139": " tricks",
  "3140": " shiver",
  "3141": " mill",
  "3142": " crawled",
  "3143": " board",
  "3144": " er",
  "3145": "nel",
  "3146": "hip",
  "3147": " using",
  "3148": " temple",
  "3149": " ignorant",
  "3150": " envelope",
  "3151": " choose",
  "3152": "weet",
  "3153": "lasses",
  "3154": "iv",
  "3155": "Me",
  "3156": "Mama",
  "3157": " sunglasses",
  "3158": " send",
  "3159": " ruined",
  "3160": " hoop",
  "3161": " friendship",
  "3162": " frame",
  "3163": " cheerful",
  "3164": " balloons",
  "3165": " avoc",
  "3166": "net",
  "3167": "met",
  "3168": "inary",
  "3169": " raft",
  "3170": " popular",
  "3171": " pepper",
  "3172": " knee",
  "3173": " folder",
  "3174": " counted",
  "3175": " built",
  "3176": " bottom",
  "3177": " batter",
  "3178": " accident",
  "3179": "most",
  "3180": "iddle",
  "3181": " waves",
  "3182": " stones",
  "3183": " spotted",
  "3184": " rose",
  "3185": " pants",
  "3186": " helmet",
  "3187": " delicate",
  "3188": " compet",
  "3189": "work",
  "3190": "ulu",
  "3191": "igator",
  "3192": "Every",
  "3193": " triangle",
  "3194": " toast",
  "3195": " sunshine",
  "3196": " spill",
  "3197": " screen",
  "3198": " kissed",
  "3199": " jack",
  "3200": " envious",
  "3201": "umpet",
  "3202": "fee",
  "3203": "ffee",
  "3204": "erable",
  "3205": " trumpet",
  "3206": " stage",
  "3207": " sighed",
  "3208": " miserable",
  "3209": " middle",
  "3210": " louder",
  "3211": " lizard",
  "3212": " cleaning",
  "3213": " careless",
  "3214": " Your",
  "3215": "ying",
  "3216": "ither",
  "3217": "Jane",
  "3218": " wander",
  "3219": " vegetables",
  "3220": " tunnel",
  "3221": " statue",
  "3222": " serious",
  "3223": " scale",
  "3224": " pigeon",
  "3225": " pow",
  "3226": " impressive",
  "3227": " harsh",
  "3228": " finger",
  "3229": " almost",
  "3230": " No",
  "3231": "seum",
  "3232": "iable",
  "3233": " sailed",
  "3234": " maze",
  "3235": " hopping",
  "3236": " bracelet",
  "3237": " borrow",
  "3238": " belt",
  "3239": " alligator",
  "3240": " Sh",
  "3241": " slipped",
  "3242": " nosy",
  "3243": " napkin",
  "3244": " museum",
  "3245": " meant",
  "3246": " guard",
  "3247": " figure",
  "3248": " earth",
  "3249": "There",
  "3250": " washed",
  "3251": " taken",
  "3252": " saus",
  "3253": " post",
  "3254": " penny",
  "3255": " compl",
  "3256": " bin",
  "3257": " attract",
  "3258": "Mum",
  "3259": " reliable",
  "3260": " rh",
  "3261": " neighbor",
  "3262": " movie",
  "3263": " jellyfish",
  "3264": " jacket",
  "3265": " hurts",
  "3266": " happiness",
  "3267": " gar",
  "3268": " coffee",
  "3269": " cries",
  "3270": " coo",
  "3271": "ctop",
  "3272": "berries",
  "3273": " ordinary",
  "3274": " knight",
  "3275": " gor",
  "3276": " filthy",
  "3277": " attractive",
  "3278": "aser",
  "3279": " wealthy",
  "3280": " shore",
  "3281": " radio",
  "3282": " ones",
  "3283": " gem",
  "3284": " cushion",
  "3285": " cam",
  "3286": "utom",
  "3287": "utomob",
  "3288": "utomobile",
  "3289": "ipper",
  "3290": " walks",
  "3291": " peach",
  "3292": " muffin",
  "3293": " magnet",
  "3294": " forward",
  "3295": " cab",
  "3296": " boxes",
  "3297": " belonged",
  "3298": "live",
  "3299": " tag",
  "3300": " shells",
  "3301": " shade",
  "3302": " poured",
  "3303": " nod",
  "3304": " locked",
  "3305": " gorilla",
  "3306": " camera",
  "3307": "zzy",
  "3308": "pack",
  "3309": "llip",
  "3310": "llipop",
  "3311": " whispered",
  "3312": " regular",
  "3313": " persist",
  "3314": " lollipop",
  "3315": " fluffy",
  "3316": " dolphin",
  "3317": " cabin",
  "3318": " boats",
  "3319": " answered",
  "3320": " automobile",
  "3321": "ony",
  "3322": "ext",
  "3323": "appy",
  "3324": " times",
  "3325": " nods",
  "3326": " giving",
  "3327": " drawer",
  "3328": " desk",
  "3329": "dom",
  "3330": " smoke",
  "3331": " sailor",
  "3332": " mule",
  "3333": " load",
  "3334": " four",
  "3335": " create",
  "3336": " competit",
  "3337": " Miss",
  "3338": "uth",
  "3339": "omes",
  "3340": "ctopus",
  "3341": "coa",
  "3342": "cles",
  "3343": " travel",
  "3344": " saying",
  "3345": " lotion",
  "3346": " judge",
  "3347": " gum",
  "3348": " chu",
  "3349": "inky",
  "3350": "ete",
  "3351": " witch",
  "3352": " twig",
  "3353": " stronger",
  "3354": " sniff",
  "3355": " shrimp",
  "3356": " delight",
  "3357": " cupboard",
  "3358": " chubby",
  "3359": " ang",
  "3360": " Today",
  "3361": " Jake",
  "3362": "und",
  "3363": "ict",
  "3364": "ging",
  "3365": "Go",
  "3366": " wool",
  "3367": " successful",
  "3368": " returned",
  "3369": " libr",
  "3370": " invited",
  "3371": " houses",
  "3372": " garage",
  "3373": " bubble",
  "3374": "urb",
  "3375": "essie",
  "3376": " support",
  "3377": " showing",
  "3378": " nicely",
  "3379": " needle",
  "3380": " mole",
  "3381": " lively",
  "3382": " lean",
  "3383": " helpless",
  "3384": "mbre",
  "3385": "Who",
  "3386": " yet",
  "3387": " umbre",
  "3388": " persistent",
  "3389": " moder",
  "3390": " helps",
  "3391": " grown",
  "3392": " fearful",
  "3393": " dough",
  "3394": " alert",
  "3395": "ief",
  "3396": "anut",
  "3397": " trunk",
  "3398": " squee",
  "3399": " solve",
  "3400": " shine",
  "3401": " scoot",
  "3402": " radish",
  "3403": " gets",
  "3404": " fridge",
  "3405": " dreams",
  "3406": " disturb",
  "3407": " club",
  "3408": "anger",
  "3409": " value",
  "3410": " sleeping",
  "3411": " octopus",
  "3412": " modern",
  "3413": " licked",
  "3414": " low",
  "3415": " decide",
  "3416": " cooked",
  "3417": " bedroom",
  "3418": " Lulu",
  "3419": "oin",
  "3420": " repe",
  "3421": " loudly",
  "3422": " creature",
  "3423": " cere",
  "3424": " carp",
  "3425": " bounced",
  "3426": "otter",
  "3427": " wishes",
  "3428": " ways",
  "3429": " uncle",
  "3430": " tire",
  "3431": " tank",
  "3432": " speed",
  "3433": " speak",
  "3434": " sort",
  "3435": " sle",
  "3436": " quar",
  "3437": " hive",
  "3438": " dive",
  "3439": " city",
  "3440": " base",
  "3441": " acce",
  "3442": " Sn",
  "3443": " otter",
  "3444": "ense",
  "3445": "azz",
  "3446": " umbrella",
  "3447": " truth",
  "3448": " thunder",
  "3449": " split",
  "3450": " learning",
  "3451": " harder",
  "3452": " hipp",
  "3453": " gym",
  "3454": " eraser",
  "3455": " candle",
  "3456": "orable",
  "3457": "Sarah",
  "3458": " station",
  "3459": " spend",
  "3460": " repair",
  "3461": " lit",
  "3462": "xy",
  "3463": "ric",
  "3464": "ilty",
  "3465": "cut",
  "3466": " order",
  "3467": " mop",
  "3468": " mild",
  "3469": " guilty",
  "3470": " father",
  "3471": " cherries",
  "3472": " chalk",
  "3473": " cereal",
  "3474": "ye",
  "3475": "ulif",
  "3476": "iron",
  "3477": "Billy",
  "3478": " wheels",
  "3479": " week",
  "3480": " vine",
  "3481": " thief",
  "3482": " quarrel",
  "3483": " pointing",
  "3484": " jewelry",
  "3485": " jet",
  "3486": " flashlight",
  "3487": " cocoa",
  "3488": " biggest",
  "3489": "tern",
  "3490": "atient",
  "3491": " soar",
  "3492": " sink",
  "3493": " knot",
  "3494": " impatient",
  "3495": " homes",
  "3496": " grace",
  "3497": " fountain",
  "3498": " caulif",
  "3499": " cact",
  "3500": " adorable",
  "3501": " True",
  "3502": " Rob",
  "3503": " ed",
  "3504": "gen",
  "3505": "asing",
  "3506": " powder",
  "3507": " library",
  "3508": " happening",
  "3509": " carpet",
  "3510": " cactus",
  "3511": " sweater",
  "3512": " stream",
  "3513": " skipped",
  "3514": " pengu",
  "3515": " office",
  "3516": " herb",
  "3517": " forth",
  "3518": " case",
  "3519": "ten",
  "3520": "keep",
  "3521": "irit",
  "3522": "arming",
  "3523": "Bobo",
  "3524": " staff",
  "3525": " shield",
  "3526": " lying",
  "3527": " half",
  "3528": " grandpa",
  "3529": " fork",
  "3530": " flute",
  "3531": " fisher",
  "3532": " Dolly",
  "3533": "rage",
  "3534": "rn",
  "3535": "ory",
  "3536": "oby",
  "3537": "ject",
  "3538": "isted",
  "3539": " whenever",
  "3540": " hippo",
  "3541": " handle",
  "3542": " grapes",
  "3543": " charming",
  "3544": "esday",
  "3545": "assion",
  "3546": " valu",
  "3547": " tripped",
  "3548": " skin",
  "3549": " feathers",
  "3550": " counting",
  "3551": " cauliflower",
  "3552": " angel",
  "3553": "zed",
  "3554": "ped",
  "3555": "levator",
  "3556": "acht",
  "3557": " ticket",
  "3558": " thinking",
  "3559": " themselves",
  "3560": " tap",
  "3561": " strawberry",
  "3562": " slept",
  "3563": " marry",
  "3564": " led",
  "3565": " knows",
  "3566": " hunt",
  "3567": " elevator",
  "3568": " design",
  "3569": " avocado",
  "3570": " Peter",
  "3571": "was",
  "3572": "washer",
  "3573": "lephone",
  "3574": "edy",
  "3575": " yacht",
  "3576": " wrapped",
  "3577": " telephone",
  "3578": " spun",
  "3579": " gifted",
  "3580": " eventually",
  "3581": " dishwasher",
  "3582": " complain",
  "3583": " competitive",
  "3584": "ellig",
  "3585": " skip",
  "3586": " shrink",
  "3587": " intellig",
  "3588": " excite",
  "3589": " iron",
  "3590": "Mummy",
  "3591": " tray",
  "3592": " towers",
  "3593": " sauce",
  "3594": " quit",
  "3595": " photo",
  "3596": " haircut",
  "3597": " gathered",
  "3598": " flea",
  "3599": " disappoin",
  "3600": " compassion",
  "3601": "rill",
  "3602": "ates",
  "3603": " wire",
  "3604": " pole",
  "3605": " poem",
  "3606": " pirate",
  "3607": " nurse",
  "3608": " giggled",
  "3609": " decorate",
  "3610": " deter",
  "3611": " anch",
  "3612": " Tweet",
  "3613": " Rose",
  "3614": "ulance",
  "3615": "opl",
  "3616": "eropl",
  "3617": "elery",
  "3618": "bulance",
  "3619": "Jim",
  "3620": " waff",
  "3621": " valuable",
  "3622": " torn",
  "3623": " toe",
  "3624": " shape",
  "3625": " restless",
  "3626": " question",
  "3627": " ham",
  "3628": " ears",
  "3629": " cricket",
  "3630": " anchor",
  "3631": " ambulance",
  "3632": " aeropl",
  "3633": "Fluffy",
  "3634": " yaw",
  "3635": " vide",
  "3636": " slides",
  "3637": " numb",
  "3638": " hotel",
  "3639": " determ",
  "3640": " buttons",
  "3641": " barrel",
  "3642": "ision",
  "3643": "ats",
  "3644": "aged",
  "3645": "ache",
  "3646": "Give",
  "3647": " stranger",
  "3648": " sett",
  "3649": " edge",
  "3650": "body",
  "3651": "ating",
  "3652": " zipper",
  "3653": " wife",
  "3654": " unlock",
  "3655": " trail",
  "3656": " tears",
  "3657": " shut",
  "3658": " sight",
  "3659": " pattern",
  "3660": " numbers",
  "3661": " meal",
  "3662": " celery",
  "3663": " bull",
  "3664": "old",
  "3665": " weigh",
  "3666": " trap",
  "3667": " spinning",
  "3668": " salt",
  "3669": " ribb",
  "3670": " pit",
  "3671": " means",
  "3672": " laughs",
  "3673": " intelligent",
  "3674": " fisherman",
  "3675": " disappointed",
  "3676": " compassionate",
  "3677": " bushes",
  "3678": " Jimmy",
  "3679": " Boun",
  "3680": "del",
  "3681": "?\".",
  "3682": " ple",
  "3683": " model",
  "3684": " comput",
  "3685": " cardboard",
  "3686": " bananas",
  "3687": "spit",
  "3688": "spital",
  "3689": "keeper",
  "3690": "iew",
  "3691": "head",
  "3692": " walls",
  "3693": " view",
  "3694": " surf",
  "3695": " soldier",
  "3696": " pear",
  "3697": " newsp",
  "3698": " mug",
  "3699": " juicy",
  "3700": " ink",
  "3701": " hospital",
  "3702": " either",
  "3703": " Toby",
  "3704": " Pete",
  "3705": " Kim",
  "3706": "quit",
  "3707": "quito",
  "3708": "ophie",
  "3709": "dest",
  "3710": " short",
  "3711": " rid",
  "3712": " oil",
  "3713": " mitten",
  "3714": " curt",
  "3715": " birdc",
  "3716": " added",
  "3717": "nam",
  "3718": "ention",
  "3719": "Mr",
  "3720": "'d",
  "3721": " succe",
  "3722": " spear",
  "3723": " silver",
  "3724": " safely",
  "3725": " prep",
  "3726": " pee",
  "3727": " pap",
  "3728": " pal",
  "3729": " nail",
  "3730": " distant",
  "3731": " curtain",
  "3732": " birdcage",
  "3733": " People",
  "3734": "ushed",
  "3735": "squito",
  "3736": "!\".",
  "3737": " spilled",
  "3738": " mosquito",
  "3739": " enc",
  "3740": " crib",
  "3741": "utes",
  "3742": "uring",
  "3743": "uper",
  "3744": "ron",
  "3745": "fa",
  "3746": "aving",
  "3747": " yogurt",
  "3748": " wiped",
  "3749": " tummy",
  "3750": " task",
  "3751": " rode",
  "3752": " questions",
  "3753": " playground",
  "3754": " painter",
  "3755": " pale",
  "3756": " purse",
  "3757": " lights",
  "3758": " label",
  "3759": " dreamed",
  "3760": " costume",
  "3761": " coins",
  "3762": " cob",
  "3763": " bikes",
  "3764": " bump",
  "3765": " Buzz",
  "3766": "par",
  "3767": " succeed",
  "3768": " spirit",
  "3769": " shocked",
  "3770": " rubber",
  "3771": " pretending",
  "3772": " motorcy",
  "3773": " minutes",
  "3774": " graceful",
  "3775": " glove",
  "3776": " aeroplane",
  "3777": " OK",
  "3778": "urch",
  "3779": "opter",
  "3780": "ocer",
  "3781": "inocer",
  "3782": "icopter",
  "3783": "ately",
  "3784": "ait",
  "3785": ",”",
  "3786": " stack",
  "3787": " sausage",
  "3788": " prov",
  "3789": " palace",
  "3790": " por",
  "3791": " itself",
  "3792": " helicopter",
  "3793": " falls",
  "3794": " dust",
  "3795": " computer",
  "3796": " collar",
  "3797": " coal",
  "3798": " chain",
  "3799": " Little",
  "3800": "uel",
  "3801": "stal",
  "3802": "riger",
  "3803": "rigerator",
  "3804": "nament",
  "3805": "inoceros",
  "3806": " scooter",
  "3807": " pun",
  "3808": " ornament",
  "3809": " knob",
  "3810": " kindness",
  "3811": " crystal",
  "3812": "ucet",
  "3813": " steps",
  "3814": " rod",
  "3815": " parade",
  "3816": " packed",
  "3817": " oak",
  "3818": " melt",
  "3819": " lime",
  "3820": " golf",
  "3821": " gear",
  "3822": " faucet",
  "3823": " ax",
  "3824": " Teddy",
  "3825": "umbled",
  "3826": " vend",
  "3827": " those",
  "3828": " refrigerator",
  "3829": " newspaper",
  "3830": " modest",
  "3831": " lie",
  "3832": " leash",
  "3833": " hour",
  "3834": " eye",
  "3835": " baseball",
  "3836": " Everywhere",
  "3837": "ugged",
  "3838": "rework",
  "3839": "levision",
  "3840": "ilot",
  "3841": "cing",
  "3842": "Is",
  "3843": " separ",
  "3844": " super",
  "3845": " rhinoceros",
  "3846": " picking",
  "3847": " matt",
  "3848": " makeup",
  "3849": " lic",
  "3850": " hate",
  "3851": " firework",
  "3852": " fog",
  "3853": " driving",
  "3854": " disappeared",
  "3855": " complet",
  "3856": " cable",
  "3857": " brothers",
  "3858": " avail",
  "3859": " Bill",
  "3860": "stri",
  "3861": "ampoo",
  "3862": " video",
  "3863": " television",
  "3864": " swinging",
  "3865": " sofa",
  "3866": " serve",
  "3867": " resc",
  "3868": " pine",
  "3869": " onion",
  "3870": " often",
  "3871": " novel",
  "3872": " license",
  "3873": " inse",
  "3874": " Spike",
  "3875": " Give",
  "3876": "time",
  "3877": "roph",
  "3878": "aked",
  "3879": "Well",
  "3880": " spell",
  "3881": " rubbed",
  "3882": " polish",
  "3883": " medal",
  "3884": " managed",
  "3885": " math",
  "3886": " hall",
  "3887": " hook",
  "3888": " determined",
  "3889": " cups",
  "3890": " church",
  "3891": " axe",
  "3892": " available",
  "3893": " Cl",
  "3894": " Birdy",
  "3895": "web",
  "3896": "rophone",
  "3897": " taller",
  "3898": " sparkly",
  "3899": " screw",
  "3900": " porch",
  "3901": " missile",
  "3902": " meadow",
  "3903": " drawings",
  "3904": " disappear",
  "3905": " cooler",
  "3906": " cobweb",
  "3907": " bags",
  "3908": " alarm",
  "3909": " Mum",
  "3910": " Fo",
  "3911": " Bet",
  "3912": "stairs",
  "3913": "htub",
  "3914": "drobe",
  "3915": "ckey",
  "3916": "arry",
  "3917": " wardrobe",
  "3918": " vendor",
  "3919": " stared",
  "3920": " penguin",
  "3921": " metal",
  "3922": " hockey",
  "3923": " growl",
  "3924": " diary",
  "3925": " climbing",
  "3926": " bookshe",
  "3927": " bathtub",
  "3928": " basketball",
  "3929": " bandage",
  "3930": " ig",
  "3931": "usia",
  "3932": "ready",
  "3933": "loo",
  "3934": "husia",
  "3935": "erc",
  "3936": "Bye",
  "3937": " veil",
  "3938": " thread",
  "3939": " rolling",
  "3940": " rice",
  "3941": " ostri",
  "3942": " miner",
  "3943": " meat",
  "3944": " may",
  "3945": " igloo",
  "3946": " hurry",
  "3947": " gasped",
  "3948": " enthusia",
  "3949": " cherry",
  "3950": " bookshelf",
  "3951": " battery",
  "3952": " already",
  "3953": " Johnny",
  "3954": "omed",
  "3955": "Wait",
  "3956": "Re",
  "3957": " swung",
  "3958": " stud",
  "3959": " stretched",
  "3960": " root",
  "3961": " rise",
  "3962": " papers",
  "3963": " organize",
  "3964": " magaz",
  "3965": " knock",
  "3966": " itch",
  "3967": " insect",
  "3968": " hunter",
  "3969": " grape",
  "3970": " explain",
  "3971": " comet",
  "3972": " Snow",
  "3973": " Pipp",
  "3974": "verse",
  "3975": "istol",
  "3976": "affe",
  "3977": "See",
  "3978": "Al",
  "3979": " object",
  "3980": " ok",
  "3981": " notice",
  "3982": " motorcycle",
  "3983": " microphone",
  "3984": " mattress",
  "3985": " mummy",
  "3986": " lumber",
  "3987": " bicy",
  "3988": "ricane",
  "3989": "nger",
  "3990": " snap",
  "3991": " realised",
  "3992": " reward",
  "3993": " pistol",
  "3994": " pilot",
  "3995": " mustache",
  "3996": " impro",
  "3997": " flame",
  "3998": " exerc",
  "3999": " encou",
  "4000": " dreaming",
  "4001": " dess",
  "4002": " cooking",
  "4003": " arg",
  "4004": "ometer",
  "4005": "lcan",
  "4006": "asp",
  "4007": "aul",
  "4008": "Gra",
  "4009": " winter",
  "4010": " wallet",
  "4011": " volcan",
  "4012": " unpack",
  "4013": " troph",
  "4014": " suggest",
  "4015": " sheet",
  "4016": " jokes",
  "4017": " flour",
  "4018": " fought",
  "4019": " blackboard",
  "4020": " Zoomy",
  "4021": "rmometer",
  "4022": "lter",
  "4023": "ipe",
  "4024": "iano",
  "4025": "aches",
  "4026": " peanut",
  "4027": " pastry",
  "4028": " network",
  "4029": " falling",
  "4030": " buckle",
  "4031": " blin",
  "4032": " bicycle",
  "4033": " Lee",
  "4034": "aid",
  "4035": "Ouch",
  "4036": " volcano",
  "4037": " vi",
  "4038": " trucks",
  "4039": " trophy",
  "4040": " sunset",
  "4041": " shampoo",
  "4042": " rake",
  "4043": " calling",
  "4044": " camp",
  "4045": " bent",
  "4046": "aky",
  "4047": " weep",
  "4048": " stom",
  "4049": " pressed",
  "4050": " practice",
  "4051": " piano",
  "4052": " ostrich",
  "4053": " neat",
  "4054": " drain",
  "4055": " beef",
  "4056": " attach",
  "4057": " Pandy",
  "4058": "ured",
  "4059": "lies",
  "4060": "aspoon",
  "4061": "angu",
  "4062": " trains",
  "4063": " teaspoon",
  "4064": " sweetie",
  "4065": " stable",
  "4066": " shelter",
  "4067": " poke",
  "4068": " package",
  "4069": " mem",
  "4070": " human",
  "4071": " hours",
  "4072": " hanging",
  "4073": " hammer",
  "4074": " bury",
  "4075": " apron",
  "4076": "ummer",
  "4077": "bol",
  "4078": "aroo",
  "4079": "angaroo",
  "4080": " track",
  "4081": " squirrels",
  "4082": " sne",
  "4083": " sym",
  "4084": " rag",
  "4085": " patch",
  "4086": " offered",
  "4087": " message",
  "4088": " marched",
  "4089": " kangaroo",
  "4090": " ins",
  "4091": " hut",
  "4092": " enjoying",
  "4093": " discovered",
  "4094": " crane",
  "4095": " blouse",
  "4096": " against",
  "4097": " ow",
  "4098": "zag",
  "4099": "ube",
  "4100": "play",
  "4101": "igzag",
  "4102": "ctory",
  "4103": " ur",
  "4104": " tube",
  "4105": " symbol",
  "4106": " skull",
  "4107": " skirt",
  "4108": " prunes",
  "4109": " passport",
  "4110": " magazine",
  "4111": " lend",
  "4112": " langu",
  "4113": " factory",
  "4114": " early",
  "4115": " display",
  "4116": " Jo",
  "4117": "ature",
  "4118": " stairs",
  "4119": " shovel",
  "4120": " prevent",
  "4121": " peeked",
  "4122": " nation",
  "4123": " holds",
  "4124": " frogs",
  "4125": " fingers",
  "4126": " fuel",
  "4127": " excitement",
  "4128": " Fro",
  "4129": "stic",
  "4130": "Little",
  "4131": " univer",
  "4132": " ten",
  "4133": " son",
  "4134": " rot",
  "4135": " perm",
  "4136": " once",
  "4137": " lip",
  "4138": " journal",
  "4139": " enthusiastic",
  "4140": " dessert",
  "4141": " check",
  "4142": " castles",
  "4143": " cell",
  "4144": " bathe",
  "4145": " accidentally",
  "4146": " Zip",
  "4147": " Look",
  "4148": " Bessie",
  "4149": "leton",
  "4150": "keleton",
  "4151": " yoga",
  "4152": " theater",
  "4153": " popped",
  "4154": " opens",
  "4155": " oy",
  "4156": " kne",
  "4157": " junk",
  "4158": " happier",
  "4159": " freez",
  "4160": " football",
  "4161": " cube",
  "4162": " Dan",
  "4163": "ium",
  "4164": "ience",
  "4165": "ffic",
  "4166": " zoomed",
  "4167": " thermometer",
  "4168": " telling",
  "4169": " shaking",
  "4170": " skeleton",
  "4171": " reading",
  "4172": " pipe",
  "4173": " matches",
  "4174": " loop",
  "4175": " hedge",
  "4176": " growing",
  "4177": " five",
  "4178": " cord",
  "4179": " bathrobe",
  "4180": " allowed",
  "4181": " Here",
  "4182": " Buzzy",
  "4183": "xygen",
  "4184": "ination",
  "4185": "come",
  "4186": "azor",
  "4187": " slipp",
  "4188": " restore",
  "4189": " fastest",
  "4190": " distance",
  "4191": " disag",
  "4192": " �",
  "4193": "ney",
  "4194": "ionary",
  "4195": "ines",
  "4196": "ictionary",
  "4197": " stumbled",
  "4198": " pinch",
  "4199": " listening",
  "4200": " hanger",
  "4201": "hero",
  "4202": "case",
  "4203": " viol",
  "4204": " superhero",
  "4205": " stirred",
  "4206": " ribbon",
  "4207": " planet",
  "4208": " peek",
  "4209": " goal",
  "4210": " film",
  "4211": " dictionary",
  "4212": " admire",
  "4213": " ahead",
  "4214": "fast",
  "4215": "Sh",
  "4216": "Joe",
  "4217": " violin",
  "4218": " trash",
  "4219": " toile",
  "4220": " surprises",
  "4221": " stickers",
  "4222": " reverse",
  "4223": " helper",
  "4224": " gaz",
  "4225": " complete",
  "4226": " chose",
  "4227": " brick",
  "4228": " alive",
  "4229": " Tina",
  "4230": " Mummy",
  "4231": "astic",
  "4232": "arian",
  "4233": " strugg",
  "4234": " stops",
  "4235": " sub",
  "4236": " poppy",
  "4237": " pony",
  "4238": " jumps",
  "4239": " chasing",
  "4240": "undry",
  "4241": "place",
  "4242": "iest",
  "4243": "cu",
  "4244": "apon",
  "4245": "Jill",
  "4246": " respectful",
  "4247": " rail",
  "4248": " mineral",
  "4249": " laundry",
  "4250": " freezer",
  "4251": " doesn",
  "4252": " circles",
  "4253": " cudd",
  "4254": " breakfast",
  "4255": " blinked",
  "4256": " bill",
  "4257": " accept",
  "4258": " Ellie",
  "4259": "stiv",
  "4260": "stival",
  "4261": "render",
  "4262": "lid",
  "4263": "chan",
  "4264": " vest",
  "4265": " toilet",
  "4266": " tooth",
  "4267": " switch",
  "4268": " strip",
  "4269": " summer",
  "4270": " refused",
  "4271": " player",
  "4272": " leaving",
  "4273": " laser",
  "4274": " hurricane",
  "4275": " grill",
  "4276": " festival",
  "4277": " exercise",
  "4278": " beet",
  "4279": "liday",
  "4280": "adium",
  "4281": " waffle",
  "4282": " stadium",
  "4283": " lions",
  "4284": " leak",
  "4285": " language",
  "4286": " holiday",
  "4287": " fireplace",
  "4288": " doors",
  "4289": " cabinet",
  "4290": " Mrs",
  "4291": "htray",
  "4292": "Did",
  "4293": " twir",
  "4294": " spoke",
  "4295": " sniffed",
  "4296": " sneeze",
  "4297": " searching",
  "4298": " rules",
  "4299": " pleased",
  "4300": " monkeys",
  "4301": " mint",
  "4302": " meowed",
  "4303": " men",
  "4304": " berry",
  "4305": " airport",
  "4306": " Zoom",
  "4307": " Elly",
  "4308": "wards",
  "4309": "med",
  "4310": "iches",
  "4311": "Ow",
  "4312": "Em",
  "4313": " traffic",
  "4314": " tightly",
  "4315": " tip",
  "4316": " slap",
  "4317": " sandwiches",
  "4318": " roared",
  "4319": " razor",
  "4320": " oats",
  "4321": " lemons",
  "4322": " lawn",
  "4323": " forgave",
  "4324": " favour",
  "4325": " comfort",
  "4326": " Betty",
  "4327": "ki",
  "4328": "ince",
  "4329": "imney",
  "4330": "iggly",
  "4331": "chanic",
  "4332": " windows",
  "4333": " stomach",
  "4334": " sticker",
  "4335": " slip",
  "4336": " separate",
  "4337": " sent",
  "4338": " plastic",
  "4339": " pair",
  "4340": " obser",
  "4341": " nature",
  "4342": " meeting",
  "4343": " mechanic",
  "4344": " finds",
  "4345": " favourite",
  "4346": " chimney",
  "4347": " caring",
  "4348": " cur",
  "4349": " boots",
  "4350": " ashtray",
  "4351": " anyway",
  "4352": " agree",
  "4353": " Or",
  "4354": " Mar",
  "4355": "sses",
  "4356": "ement",
  "4357": " unite",
  "4358": " tomatoes",
  "4359": " resist",
  "4360": " mixer",
  "4361": " lightning",
  "4362": " grabs",
  "4363": " ener",
  "4364": " cows",
  "4365": " breat",
  "4366": " blueberry",
  "4367": " beetle",
  "4368": " barking",
  "4369": " Jazz",
  "4370": "year",
  "4371": "hic",
  "4372": " vehic",
  "4373": " subway",
  "4374": " sport",
  "4375": " point",
  "4376": " poked",
  "4377": " minute",
  "4378": " letters",
  "4379": " imagine",
  "4380": " holes",
  "4381": " giraffe",
  "4382": " classroom",
  "4383": " cards",
  "4384": " belongs",
  "4385": " Are",
  "4386": " Y",
  "4387": "night",
  "4388": "la",
  "4389": "hter",
  "4390": "book",
  "4391": "ayak",
  "4392": "amber",
  "4393": " remove",
  "4394": " oyster",
  "4395": " notebook",
  "4396": " mistakes",
  "4397": " laughter",
  "4398": " kayak",
  "4399": " invite",
  "4400": " flood",
  "4401": " billboard",
  "4402": " Sophie",
  "4403": " Pippin",
  "4404": " Bounce",
  "4405": " Big",
  "4406": "te",
  "4407": "apa",
  "4408": " yield",
  "4409": " remain",
  "4410": " rac",
  "4411": " puddles",
  "4412": " oxygen",
  "4413": " names",
  "4414": " musician",
  "4415": " leaned",
  "4416": " improve",
  "4417": " handed",
  "4418": " country",
  "4419": " cartoon",
  "4420": " Alice",
  "4421": "chair",
  "4422": "cast",
  "4423": "Jimmy",
  "4424": " whip",
  "4425": " warned",
  "4426": " warn",
  "4427": " swamp",
  "4428": " spoil",
  "4429": " sandcast",
  "4430": " sudden",
  "4431": " size",
  "4432": " proudly",
  "4433": " problems",
  "4434": " glowing",
  "4435": " courage",
  "4436": " chamber",
  "4437": " bookcase",
  "4438": " Sandy",
  "4439": "vice",
  "4440": "ola",
  "4441": "lend",
  "4442": "inarian",
  "4443": "igi",
  "4444": "eterinarian",
  "4445": "eb",
  "4446": " wipe",
  "4447": " wine",
  "4448": " strawberries",
  "4449": " sadly",
  "4450": " pushes",
  "4451": " pulls",
  "4452": " lawy",
  "4453": " dancer",
  "4454": " beep",
  "4455": " above",
  "4456": " Ru",
  "4457": "ison",
  "4458": " trade",
  "4459": " surrender",
  "4460": " soil",
  "4461": " slippery",
  "4462": " sandbox",
  "4463": " rescue",
  "4464": " panic",
  "4465": " pages",
  "4466": " navy",
  "4467": " frowned",
  "4468": " fre",
  "4469": " copper",
  "4470": " cliff",
  "4471": " ceiling",
  "4472": " butterflies",
  "4473": " appl",
  "4474": " Co",
  "4475": "usie",
  "4476": "rod",
  "4477": "emember",
  "4478": "coli",
  "4479": "ccoli",
  "4480": " veterinarian",
  "4481": " tease",
  "4482": " rece",
  "4483": " planes",
  "4484": " page",
  "4485": " kneel",
  "4486": " kinds",
  "4487": " incre",
  "4488": " fort",
  "4489": " feelings",
  "4490": " carrying",
  "4491": " armchair",
  "4492": " art",
  "4493": " Polly",
  "4494": " Ow",
  "4495": " x",
  "4496": "gie",
  "4497": "ecause",
  "4498": "ebra",
  "4499": "aud",
  "4500": " weapon",
  "4501": " stair",
  "4502": " repeat",
  "4503": " provide",
  "4504": " introd",
  "4505": " ignore",
  "4506": " energy",
  "4507": " delay",
  "4508": " brightly",
  "4509": " believed",
  "4510": "scope",
  "4511": "roscope",
  "4512": "nesday",
  "4513": "lendar",
  "4514": "lu",
  "4515": "ednesday",
  "4516": "cer",
  "4517": "anda",
  "4518": " waste",
  "4519": " tools",
  "4520": " somewhere",
  "4521": " shakes",
  "4522": " regret",
  "4523": " prayed",
  "4524": " ped",
  "4525": " mailman",
  "4526": " lid",
  "4527": " heat",
  "4528": " calendar",
  "4529": " Paul",
  "4530": "olog",
  "4531": "low",
  "4532": "imed",
  "4533": " zebra",
  "4534": " sounded",
  "4535": " sandcastle",
  "4536": " saving",
  "4537": " reminded",
  "4538": " older",
  "4539": " nobody",
  "4540": " meas",
  "4541": " lives",
  "4542": " keeping",
  "4543": " apolog",
  "4544": " advice",
  "4545": " aw",
  "4546": " Where",
  "4547": " God",
  "4548": "itation",
  "4549": "elcome",
  "4550": "Your",
  "4551": " vehicle",
  "4552": " raise",
  "4553": " price",
  "4554": " mystery",
  "4555": " lawyer",
  "4556": " freeze",
  "4557": " flies",
  "4558": " ext",
  "4559": " choice",
  "4560": " cane",
  "4561": " anywhere",
  "4562": "hest",
  "4563": "eer",
  "4564": " tax",
  "4565": " suggested",
  "4566": " starts",
  "4567": " softly",
  "4568": " shouts",
  "4569": " shone",
  "4570": " rooms",
  "4571": " rushed",
  "4572": " letting",
  "4573": " inclu",
  "4574": " imagined",
  "4575": " happens",
  "4576": " dear",
  "4577": " crossed",
  "4578": " colourful",
  "4579": " chairs",
  "4580": " breaks",
  "4581": " Su",
  "4582": " Grandpa",
  "4583": "ores",
  "4584": "ogn",
  "4585": "lex",
  "4586": "aurant",
  "4587": "alley",
  "4588": "aggie",
  "4589": " taxi",
  "4590": " squeeze",
  "4591": " smells",
  "4592": " restaurant",
  "4593": " replace",
  "4594": " recogn",
  "4595": " pitch",
  "4596": " excitedly",
  "4597": " eaten",
  "4598": " chickens",
  "4599": " applaud",
  "4600": " Wiggly",
  "4601": " Papa",
  "4602": " Next",
  "4603": " Gigi",
  "4604": "orge",
  "4605": "indeer",
  "4606": "eorge",
  "4607": "apping",
  "4608": "Next",
  "4609": "Mary",
  "4610": "Mark",
  "4611": " valley",
  "4612": " trem",
  "4613": " tub",
  "4614": " steam",
  "4615": " reindeer",
  "4616": " ranch",
  "4617": " rained",
  "4618": " olive",
  "4619": " gain",
  "4620": " file",
  "4621": " content",
  "4622": " broccoli",
  "4623": " blowing",
  "4624": " Carl",
  "4625": "arlie",
  "4626": " microscope",
  "4627": " extra",
  "4628": " ended",
  "4629": " equ",
  "4630": " dishes",
  "4631": " Would",
  "4632": " Wednesday",
  "4633": " Ste",
  "4634": " V",
  "4635": "utor",
  "4636": "na",
  "4637": "ero",
  "4638": "ected",
  "4639": "Yuck",
  "4640": "Yay",
  "4641": " tornado",
  "4642": " spade",
  "4643": " sneezed",
  "4644": " reve",
  "4645": " prepare",
  "4646": " mass",
  "4647": " hung",
  "4648": " fresh",
  "4649": " event",
  "4650": " delighted",
  "4651": " dare",
  "4652": " chewed",
  "4653": " bouncing",
  "4654": " blueberries",
  "4655": " barks",
  "4656": "vet",
  "4657": "tain",
  "4658": "ggy",
  "4659": "Will",
  "4660": "Daisy",
  "4661": " tutor",
  "4662": " settle",
  "4663": " scold",
  "4664": " riding",
  "4665": " poison",
  "4666": " myself",
  "4667": " hoping",
  "4668": " heads",
  "4669": " gro",
  "4670": " chance",
  "4671": " argue",
  "4672": " Fl",
  "4673": "illie",
  "4674": "acation",
  "4675": "Ready",
  "4676": " vacation",
  "4677": " shrugged",
  "4678": " quiz",
  "4679": " opera",
  "4680": " Freddy",
  "4681": " Binky",
  "4682": "ipment",
  "4683": "cuss",
  "4684": "asis",
  "4685": "Qu",
  "4686": " weather",
  "4687": " skill",
  "4688": " shivering",
  "4689": " seas",
  "4690": " suff",
  "4691": " prints",
  "4692": " missing",
  "4693": " giggle",
  "4694": " float",
  "4695": " evening",
  "4696": " equipment",
  "4697": " enter",
  "4698": " discuss",
  "4699": " chores",
  "4700": " burned",
  "4701": " bend",
  "4702": " baking",
  "4703": " Spark",
  "4704": " End",
  "4705": "ucture",
  "4706": "noon",
  "4707": "acked",
  "4708": " thanks",
  "4709": " structure",
  "4710": " sty",
  "4711": " reveal",
  "4712": " pushing",
  "4713": " prune",
  "4714": " oasis",
  "4715": " mention",
  "4716": " invitation",
  "4717": " fixing",
  "4718": " afternoon",
  "4719": "ky",
  "4720": "inking",
  "4721": "heart",
  "4722": " yawned",
  "4723": " writing",
  "4724": " trusted",
  "4725": " throws",
  "4726": " throwing",
  "4727": " spots",
  "4728": " socks",
  "4729": " puzzles",
  "4730": " placed",
  "4731": " perfume",
  "4732": " hills",
  "4733": " grand",
  "4734": " dem",
  "4735": " bumped",
  "4736": " Under",
  "4737": " Lilly",
  "4738": "sity",
  "4739": "otten",
  "4740": "ana",
  "4741": "Ann",
  "4742": " tracks",
  "4743": " parts",
  "4744": " mall",
  "4745": " luck",
  "4746": " insisted",
  "4747": " coats",
  "4748": " captain",
  "4749": " below",
  "4750": " beans",
  "4751": " Mike",
  "4752": "queaky",
  "4753": "happy",
  "4754": "ef",
  "4755": "Ch",
  "4756": "Buddy",
  "4757": "\",",
  "4758": " sweetheart",
  "4759": " sticky",
  "4760": " shower",
  "4761": " shoulder",
  "4762": " sew",
  "4763": " sigh",
  "4764": " printed",
  "4765": " pastel",
  "4766": " following",
  "4767": " claw",
  "4768": " cared",
  "4769": " brighter",
  "4770": " Me",
  "4771": "va",
  "4772": "peedy",
  "4773": "omm",
  "4774": "ommend",
  "4775": "Not",
  "4776": "All",
  "4777": " unhappy",
  "4778": " teaching",
  "4779": " recommend",
  "4780": " punish",
  "4781": " panda",
  "4782": " impressed",
  "4783": " greedy",
  "4784": " expect",
  "4785": " Un",
  "4786": " Bow",
  "4787": "uggage",
  "4788": "look",
  "4789": "iform",
  "4790": "ations",
  "4791": " uniform",
  "4792": " exper",
  "4793": " deeper",
  "4794": " candles",
  "4795": " beg",
  "4796": " Ro",
  "4797": " Hoppy",
  "4798": " Have",
  "4799": "nce",
  "4800": "lp",
  "4801": "enry",
  "4802": "Jenny",
  "4803": "Daddy",
  "4804": "Before",
  "4805": " yucky",
  "4806": " weight",
  "4807": " tour",
  "4808": " sprayed",
  "4809": " splashing",
  "4810": " sparkled",
  "4811": " score",
  "4812": " luggage",
  "4813": " hen",
  "4814": " easily",
  "4815": " cub",
  "4816": " clapping",
  "4817": " Penny",
  "4818": " Eventually",
  "4819": " Che",
  "4820": "looking",
  "4821": "ittens",
  "4822": "arnt",
  "4823": "Surpr",
  "4824": " whisper",
  "4825": " steel",
  "4826": " sir",
  "4827": " racing",
  "4828": " lemonade",
  "4829": " learnt",
  "4830": " ignored",
  "4831": " follows",
  "4832": " destroyed",
  "4833": " checked",
  "4834": " Help",
  "4835": "urnit",
  "4836": "urniture",
  "4837": "ucked",
  "4838": "riage",
  "4839": "hood",
  "4840": "ecting",
  "4841": "cond",
  "4842": "ari",
  "4843": "anges",
  "4844": "Mimi",
  "4845": " worms",
  "4846": " wigg",
  "4847": " vanished",
  "4848": " upstairs",
  "4849": " tremble",
  "4850": " spr",
  "4851": " selling",
  "4852": " second",
  "4853": " scattered",
  "4854": " permit",
  "4855": " fro",
  "4856": " furniture",
  "4857": " cheek",
  "4858": " chirp",
  "4859": " buried",
  "4860": " Whenever",
  "4861": " Susie",
  "4862": " Olive",
  "4863": "ween",
  "4864": "uct",
  "4865": "reek",
  "4866": "iki",
  "4867": "ents",
  "4868": "Welcome",
  "4869": " whistled",
  "4870": " vroom",
  "4871": " streng",
  "4872": " sorting",
  "4873": " reef",
  "4874": " jogged",
  "4875": " jail",
  "4876": " entered",
  "4877": " demand",
  "4878": " creek",
  "4879": " between",
  "4880": " badly",
  "4881": " Snowy",
  "4882": " Is",
  "4883": "redient",
  "4884": "laimed",
  "4885": "ingredient",
  "4886": "ides",
  "4887": "ecture",
  "4888": " wre",
  "4889": " thumb",
  "4890": " supply",
  "4891": " style",
  "4892": " rush",
  "4893": " quite",
  "4894": " points",
  "4895": " paid",
  "4896": " massage",
  "4897": " marble",
  "4898": " lecture",
  "4899": " hopes",
  "4900": " exclaimed",
  "4901": " counter",
  "4902": " claws",
  "4903": " bricks",
  "4904": " Froggy",
  "4905": " ingredient",
  "4906": " \n",
  "4907": "izes",
  "4908": "Surprise",
  "4909": " strength",
  "4910": " seats",
  "4911": " scratch",
  "4912": " row",
  "4913": " petals",
  "4914": " port",
  "4915": " neighbour",
  "4916": " hurting",
  "4917": " grant",
  "4918": " cutting",
  "4919": " climbs",
  "4920": " breathe",
  "4921": " bother",
  "4922": " Squeaky",
  "4923": " Pr",
  "4924": "ges",
  "4925": "These",
  "4926": "Alice",
  "4927": " –",
  "4928": " tug",
  "4929": " shopkeeper",
  "4930": " raining",
  "4931": " putting",
  "4932": " menu",
  "4933": " marriage",
  "4934": " cakes",
  "4935": " bears",
  "4936": " allow",
  "4937": " Who",
  "4938": " Speedy",
  "4939": " Sm",
  "4940": " Mittens",
  "4941": "urther",
  "4942": "resses",
  "4943": " works",
  "4944": " wags",
  "4945": " waving",
  "4946": " starting",
  "4947": " snail",
  "4948": " printer",
  "4949": " pigs",
  "4950": " ingredients",
  "4951": " heel",
  "4952": " forgotten",
  "4953": " explored",
  "4954": " agre",
  "4955": " admired",
  "4956": " Lola",
  "4957": " Grace",
  "4958": " Alex",
  "4959": "right",
  "4960": "ecially",
  "4961": "Grandma",
  "4962": "Because",
  "4963": " wreck",
  "4964": " washing",
  "4965": " soc",
  "4966": " shined",
  "4967": " scoop",
  "4968": " sailing",
  "4969": " plates",
  "4970": " observe",
  "4971": " jogging",
  "4972": " introduce",
  "4973": " hon",
  "4974": " fallen",
  "4975": " further",
  "4976": " eagerly",
  "4977": " drops",
  "4978": " difference",
  "4979": " daisy",
  "4980": " balan",
  "4981": " apart",
  "4982": " Finn",
  "4983": "thank",
  "4984": "specially",
  "4985": "atched",
  "4986": " tuna",
  "4987": " strike",
  "4988": " soccer",
  "4989": " pup",
  "4990": " floated",
  "4991": " during",
  "4992": " blood",
  "4993": " acted",
  "4994": " Sharing",
  "4995": " Maggie",
  "4996": "reat",
  "4997": "icer",
  "4998": "eration",
  "4999": " yawn",
  "5000": " worth",
  "5001": " warning",
  "5002": " wandered",
  "5003": " tong",
  "5004": " studied",
  "5005": " rul",
  "5006": " plays",
  "5007": " planted",
  "5008": " moves",
  "5009": " increase",
  "5010": " horses",
  "5011": " highest",
  "5012": " folded",
  "5013": " flapped",
  "5014": " especially",
  "5015": " buzz",
  "5016": " beauty",
  "5017": " Tilly",
  "5018": " Remember",
  "5019": " Nana",
  "5020": "uesday",
  "5021": "shed",
  "5022": "reeze",
  "5023": "quest",
  "5024": "quake",
  "5025": "Bl",
  "5026": "Bella",
  "5027": "..",
  "5028": " watered",
  "5029": " urge",
  "5030": " shouting",
  "5031": " reaches",
  "5032": " presents",
  "5033": " oh",
  "5034": " kingdom",
  "5035": " given",
  "5036": " famil",
  "5037": " examine",
  "5038": " conf",
  "5039": " Tuesday",
  "5040": " Owl",
  "5041": " Lizzy",
  "5042": " Kiki",
  "5043": " Everything",
  "5044": "unately",
  "5045": "raged",
  "5046": "medi",
  "5047": "mediately",
  "5048": "men",
  "5049": "bor",
  "5050": "Fred",
  "5051": "Ella",
  "5052": " university",
  "5053": " twisted",
  "5054": " sorts",
  "5055": " solved",
  "5056": " soak",
  "5057": " snapped",
  "5058": " slapped",
  "5059": " scolded",
  "5060": " quietly",
  "5061": " lands",
  "5062": " harbor",
  "5063": " gifts",
  "5064": " elephants",
  "5065": " earthquake",
  "5066": " dressed",
  "5067": " brings",
  "5068": " bak",
  "5069": " See",
  "5070": " Coco",
  "5071": " Charlie",
  "5072": "omeday",
  "5073": "Leo",
  "5074": " zigzag",
  "5075": " zero",
  "5076": " tongue",
  "5077": " snugg",
  "5078": " sits",
  "5079": " request",
  "5080": " pur",
  "5081": " inst",
  "5082": " hearts",
  "5083": " hadn",
  "5084": " experience",
  "5085": " curled",
  "5086": " crash",
  "5087": " Milly",
  "5088": " Dave",
  "5089": "sterday",
  "5090": "sed",
  "5091": "pted",
  "5092": "isses",
  "5093": "esterday",
  "5094": "Everyone",
  "5095": "Emma",
  "5096": " wisdom",
  "5097": " west",
  "5098": " trave",
  "5099": " sliding",
  "5100": " planned",
  "5101": " oranges",
  "5102": " operation",
  "5103": " memory",
  "5104": " mister",
  "5105": " kisses",
  "5106": " image",
  "5107": " comf",
  "5108": " Le",
  "5109": " Kate",
  "5110": " Bubbles",
  "5111": "rise",
  "5112": "ipping",
  "5113": "eath",
  "5114": "do",
  "5115": " worse",
  "5116": " tide",
  "5117": " stuffed",
  "5118": " squeezed",
  "5119": " skills",
  "5120": " someday",
  "5121": " sizes",
  "5122": " ruler",
  "5123": " prett",
  "5124": " paused",
  "5125": " licks",
  "5126": " fields",
  "5127": " bouncy",
  "5128": " attached",
  "5129": " Ruby",
  "5130": " Good",
  "5131": " Finny",
  "5132": "ories",
  "5133": "mm",
  "5134": "atie",
  "5135": "aded",
  "5136": "Woof",
  "5137": "'ve",
  "5138": " suffer",
  "5139": " sorted",
  "5140": " shot",
  "5141": " since",
  "5142": " release",
  "5143": " pulling",
  "5144": " manage",
  "5145": " mama",
  "5146": " imagination",
  "5147": " ideas",
  "5148": " encourage",
  "5149": " colours",
  "5150": " catching",
  "5151": " cape",
  "5152": " appear",
  "5153": " accepted",
  "5154": " Abby",
  "5155": "Today",
  "5156": "Ha",
  "5157": " zookeeper",
  "5158": " welcomed",
  "5159": " twirled",
  "5160": " tonight",
  "5161": " pearl",
  "5162": " peaches",
  "5163": " news",
  "5164": " measured",
  "5165": " mice",
  "5166": " immediately",
  "5167": " dried",
  "5168": " blankets",
  "5169": " bones",
  "5170": " attention",
  "5171": " Toto",
  "5172": " Rock",
  "5173": " Bop",
  "5174": "yth",
  "5175": "sters",
  "5176": "indy",
  "5177": "ippy",
  "5178": "house",
  "5179": "ction",
  "5180": "With",
  "5181": " whistling",
  "5182": " wagging",
  "5183": " tucked",
  "5184": " sunrise",
  "5185": " spike",
  "5186": " settled",
  "5187": " season",
  "5188": " rabbits",
  "5189": " peanuts",
  "5190": " melted",
  "5191": " leather",
  "5192": " growled",
  "5193": " closely",
  "5194": " celebrated",
  "5195": " calls",
  "5196": " Sky",
  "5197": " Ros",
  "5198": " Pip",
  "5199": " Millie",
  "5200": " George",
  "5201": " Before",
  "5202": " Bee",
  "5203": "ups",
  "5204": "ored",
  "5205": "ips",
  "5206": "etch",
  "5207": "cery",
  "5208": "Remy",
  "5209": " winning",
  "5210": " tastes",
  "5211": " stealing",
  "5212": " si",
  "5213": " remained",
  "5214": " recognize",
  "5215": " receive",
  "5216": " quack",
  "5217": " ours",
  "5218": " married",
  "5219": " grocery",
  "5220": " glo",
  "5221": " fireman",
  "5222": " downstairs",
  "5223": " disagreed",
  "5224": " dresses",
  "5225": " ble",
  "5226": " Zara",
  "5227": " Mo",
  "5228": " Ho",
  "5229": "walk",
  "5230": "unday",
  "5231": "rank",
  "5232": "ising",
  "5233": "fortunately",
  "5234": "Blue",
  "5235": " zipped",
  "5236": " wooden",
  "5237": " understanding",
  "5238": " tremb",
  "5239": " tore",
  "5240": " toes",
  "5241": " surround",
  "5242": " stro",
  "5243": " stirring",
  "5244": " soaked",
  "5245": " snuggled",
  "5246": " sidewalk",
  "5247": " shed",
  "5248": " safari",
  "5249": " punished",
  "5250": " palm",
  "5251": " memories",
  "5252": " lips",
  "5253": " inf",
  "5254": " gloves",
  "5255": " emer",
  "5256": " easier",
  "5257": " bang",
  "5258": " Wally",
  "5259": " Steve",
  "5260": " Sunday",
  "5261": " Pat",
  "5262": " Hope",
  "5263": " Clara",
  "5264": "ythm",
  "5265": "icky",
  "5266": "icing",
  "5267": "ddy",
  "5268": "ding",
  "5269": "Bird",
  "5270": " universe",
  "5271": " straight",
  "5272": " snowball",
  "5273": " seeing",
  "5274": " rang",
  "5275": " potatoes",
  "5276": " isn",
  "5277": " hits",
  "5278": " encouraged",
  "5279": " creatures",
  "5280": " collection",
  "5281": " breaking",
  "5282": " backpack",
  "5283": " baked",
  "5284": " Red",
  "5285": " Fox",
  "5286": " Danny",
  "5287": "rr",
  "5288": "ops",
  "5289": "ien",
  "5290": "Peter",
  "5291": "Ok",
  "5292": " trembling",
  "5293": " ringing",
  "5294": " raised",
  "5295": " pirates",
  "5296": " pedal",
  "5297": " offer",
  "5298": " lung",
  "5299": " grin",
  "5300": " gazed",
  "5301": " floating",
  "5302": " flap",
  "5303": " acorns",
  "5304": " Suzy",
  "5305": " Smith",
  "5306": " Ray",
  "5307": " Jess",
  "5308": " Henry",
  "5309": " Ava",
  "5310": "sing",
  "5311": "ites",
  "5312": "isdom",
  "5313": "eep",
  "5314": "bles",
  "5315": "aped",
  "5316": "abies",
  "5317": "Lisa",
  "5318": " waits",
  "5319": " wob",
  "5320": " unlocked",
  "5321": " spit",
  "5322": " shouldn",
  "5323": " shopping",
  "5324": " relaxed",
  "5325": " pebbles",
  "5326": " pad",
  "5327": " muscles",
  "5328": " landsc",
  "5329": " kites",
  "5330": " kicking",
  "5331": " include",
  "5332": " hers",
  "5333": " flat",
  "5334": " fireworks",
  "5335": " firef",
  "5336": " crawling",
  "5337": " brus",
  "5338": " bites",
  "5339": " babies",
  "5340": " alright",
  "5341": " Each",
  "5342": " Baby",
  "5343": "orted",
  "5344": "igging",
  "5345": "icorn",
  "5346": "Would",
  "5347": " web",
  "5348": " watches",
  "5349": " unicorn",
  "5350": " simp",
  "5351": " families",
  "5352": " dared",
  "5353": " brain",
  "5354": " bleed",
  "5355": " appro",
  "5356": " Zigzag",
  "5357": " Robby",
  "5358": " Mandy",
  "5359": " Follow",
  "5360": "ther",
  "5361": "kins",
  "5362": "ids",
  "5363": "ety",
  "5364": "allen",
  "5365": "Momo",
  "5366": " visited",
  "5367": " tallest",
  "5368": " sneak",
  "5369": " shadows",
  "5370": " safety",
  "5371": " resting",
  "5372": " petted",
  "5373": " opin",
  "5374": " mouths",
  "5375": " matched",
  "5376": " kneeled",
  "5377": " keeps",
  "5378": " kitty",
  "5379": " instr",
  "5380": " girls",
  "5381": " exit",
  "5382": " drinking",
  "5383": " digging",
  "5384": " chewing",
  "5385": " challen",
  "5386": " beds",
  "5387": " breeze",
  "5388": " Sun",
  "5389": " Rosie",
  "5390": " James",
  "5391": "umes",
  "5392": "uzz",
  "5393": "rec",
  "5394": "lvet",
  "5395": "ler",
  "5396": "ishy",
  "5397": "ishing",
  "5398": "elle",
  "5399": " weeping",
  "5400": " weighed",
  "5401": " velvet",
  "5402": " vet",
  "5403": " underground",
  "5404": " studying",
  "5405": " stitch",
  "5406": " silence",
  "5407": " served",
  "5408": " playtime",
  "5409": " piles",
  "5410": " ordered",
  "5411": " none",
  "5412": " muddy",
  "5413": " laid",
  "5414": " lined",
  "5415": " disagree",
  "5416": " cartoons",
  "5417": " amazement",
  "5418": " Zoe",
  "5419": " These",
  "5420": " Slow",
  "5421": " Maria",
  "5422": " Mel",
  "5423": " King",
  "5424": "reci",
  "5425": "oral",
  "5426": "chie",
  "5427": "avid",
  "5428": "Tr",
  "5429": "!\",",
  "5430": "!'",
  "5431": " winner",
  "5432": " vanish",
  "5433": " twink",
  "5434": " treasures",
  "5435": " spoons",
  "5436": " signs",
  "5437": " setting",
  "5438": " roots",
  "5439": " roads",
  "5440": " repeated",
  "5441": " nowhere",
  "5442": " napping",
  "5443": " mixing",
  "5444": " lick",
  "5445": " landscape",
  "5446": " gust",
  "5447": " crunch",
  "5448": " costumes",
  "5449": " bye",
  "5450": " appreci",
  "5451": " Something",
  "5452": " Not",
  "5453": " Lucky",
  "5454": "rs",
  "5455": "oved",
  "5456": "izing",
  "5457": "coon",
  "5458": "aved",
  "5459": "Yum",
  "5460": "Thanks",
  "5461": "Johnny",
  "5462": "Bobby",
  "5463": ".'",
  "5464": " voices",
  "5465": " urged",
  "5466": " strang",
  "5467": " sisters",
  "5468": " sausages",
  "5469": " six",
  "5470": " sip",
  "5471": " rhythm",
  "5472": " pinched",
  "5473": " pets",
  "5474": " perfectly",
  "5475": " jazz",
  "5476": " importance",
  "5477": " happiest",
  "5478": " emergen",
  "5479": " decorations",
  "5480": " decorated",
  "5481": " Wisdom",
  "5482": " Tony",
  "5483": " Later",
  "5484": " Bouncy",
  "5485": " Bree",
  "5486": " Qu",
  "5487": "umble",
  "5488": "shion",
  "5489": "oys",
  "5490": "Sp",
  "5491": " waist",
  "5492": " wink",
  "5493": " result",
  "5494": " prepared",
  "5495": " patterns",
  "5496": " pra",
  "5497": " mentioned",
  "5498": " lets",
  "5499": " lily",
  "5500": " knights",
  "5501": " infant",
  "5502": " guessed",
  "5503": " fashion",
  "5504": " draws",
  "5505": " dire",
  "5506": " clearing",
  "5507": " agreement",
  "5508": " Ted",
  "5509": " Peanut",
  "5510": " Out",
  "5511": " Harry",
  "5512": "ssible",
  "5513": "plash",
  "5514": "oming",
  "5515": "isten",
  "5516": "irts",
  "5517": "iers",
  "5518": "hello",
  "5519": "ena",
  "5520": "Sammy",
  "5521": "Happy",
  "5522": "Dog",
  "5523": " waffles",
  "5524": " turning",
  "5525": " thrill",
  "5526": " strangers",
  "5527": " sprink",
  "5528": " scru",
  "5529": " poems",
  "5530": " phot",
  "5531": " ourselves",
  "5532": " noon",
  "5533": " moments",
  "5534": " marks",
  "5535": " known",
  "5536": " hurried",
  "5537": " escaped",
  "5538": " eagle",
  "5539": " crunchy",
  "5540": " beard",
  "5541": " admir",
  "5542": " Liz",
  "5543": " Frank",
  "5544": " Both",
  "5545": "zen",
  "5546": "ship",
  "5547": "please",
  "5548": "ities",
  "5549": "antly",
  "5550": "Sophie",
  "5551": "Moral",
  "5552": "Jen",
  "5553": "Emily",
  "5554": " spending",
  "5555": " soldiers",
  "5556": " ruin",
  "5557": " ripped",
  "5558": " pillows",
  "5559": " peel",
  "5560": " logs",
  "5561": " limes",
  "5562": " grinned",
  "5563": " gran",
  "5564": " goals",
  "5565": " frozen",
  "5566": " forgi",
  "5567": " fetch",
  "5568": " expected",
  "5569": " disturbed",
  "5570": " cuddled",
  "5571": " crashed",
  "5572": " bravely",
  "5573": " brid",
  "5574": " bowed",
  "5575": " behaved",
  "5576": " apologized",
  "5577": " Watch",
  "5578": " Prin",
  "5579": " Car",
  "5580": "vest",
  "5581": "uddles",
  "5582": "tory",
  "5583": "ishes",
  "5584": "ived",
  "5585": "ded",
  "5586": "acob",
  "5587": "Cat",
  "5588": " struggle",
  "5589": " photos",
  "5590": " matching",
  "5591": " lines",
  "5592": " knelt",
  "5593": " history",
  "5594": " guy",
  "5595": " gained",
  "5596": " fishing",
  "5597": " emergency",
  "5598": " dads",
  "5599": " collecting",
  "5600": " beneath",
  "5601": " Joey",
  "5602": " Did",
  "5603": " Cuddles",
  "5604": "xture",
  "5605": "ud",
  "5606": "omas",
  "5607": "ctly",
  "5608": "choo",
  "5609": "arth",
  "5610": "Watch",
  "5611": "Goodbye",
  "5612": " wondering",
  "5613": " warmth",
  "5614": " trapped",
  "5615": " texture",
  "5616": " sore",
  "5617": " soared",
  "5618": " slice",
  "5619": " skipping",
  "5620": " rested",
  "5621": " resp",
  "5622": " pies",
  "5623": " meow",
  "5624": " item",
  "5625": " hes",
  "5626": " drinks",
  "5627": " dragons",
  "5628": " collected",
  "5629": " challenge",
  "5630": " burning",
  "5631": " buildings",
  "5632": " bridges",
  "5633": " begged",
  "5634": " beat",
  "5635": " answers",
  "5636": " Rocky",
  "5637": " Josh",
  "5638": " Its",
  "5639": " Hop",
  "5640": "ales",
  "5641": "Ducky",
  "5642": "Andy",
  "5643": " wiggle",
  "5644": " threat",
  "5645": " stamps",
  "5646": " simple",
  "5647": " screams",
  "5648": " scratched",
  "5649": " scaring",
  "5650": " praised",
  "5651": " opinion",
  "5652": " lied",
  "5653": " kindly",
  "5654": " crabs",
  "5655": " approached",
  "5656": " ago",
  "5657": " Sof",
  "5658": " Happy",
  "5659": " Bug",
  "5660": " Bo",
  "5661": "utter",
  "5662": "ury",
  "5663": "iti",
  "5664": "ica",
  "5665": "hind",
  "5666": "emb",
  "5667": "bug",
  "5668": "akes",
  "5669": "Miss",
  "5670": " wonders",
  "5671": " twigs",
  "5672": " theirs",
  "5673": " teasing",
  "5674": " sparkling",
  "5675": " scrubbed",
  "5676": " olives",
  "5677": " neighborhood",
  "5678": " ladybug",
  "5679": " golden",
  "5680": " gathering",
  "5681": " east",
  "5682": " comfy",
  "5683": " brushed",
  "5684": " boom",
  "5685": " blink",
  "5686": " Stop",
  "5687": " Stitch",
  "5688": " Katie",
  "5689": "zing",
  "5690": "vestig",
  "5691": "mare",
  "5692": "lier",
  "5693": "ino",
  "5694": "embers",
  "5695": "bbing",
  "5696": "Really",
  "5697": "Eventually",
  "5698": "Benny",
  "5699": " teaches",
  "5700": " tim",
  "5701": " strings",
  "5702": " sting",
  "5703": " slim",
  "5704": " shoulders",
  "5705": " ropes",
  "5706": " remembers",
  "5707": " nightmare",
  "5708": " muffins",
  "5709": " joking",
  "5710": " investig",
  "5711": " herbs",
  "5712": " granted",
  "5713": " gaze",
  "5714": " fed",
  "5715": " eff",
  "5716": " copy",
  "5717": " broom",
  "5718": " beamed",
  "5719": " ann",
  "5720": " Lou",
  "5721": " Dare",
  "5722": " Catty",
  "5723": " Being",
  "5724": "wh",
  "5725": "urry",
  "5726": "uest",
  "5727": "riends",
  "5728": "osed",
  "5729": "ogo",
  "5730": "anny",
  "5731": "ados",
  "5732": "Sandy",
  "5733": "Poppy",
  "5734": "Mmm",
  "5735": " zooming",
  "5736": " writes",
  "5737": " twin",
  "5738": " trips",
  "5739": " thrilled",
  "5740": " swims",
  "5741": " sparkle",
  "5742": " sneaked",
  "5743": " slimy",
  "5744": " shock",
  "5745": " roaring",
  "5746": " refu",
  "5747": " recorded",
  "5748": " received",
  "5749": " pencils",
  "5750": " pedals",
  "5751": " parties",
  "5752": " marching",
  "5753": " loose",
  "5754": " investigate",
  "5755": " hissed",
  "5756": " headed",
  "5757": " hardly",
  "5758": " grey",
  "5759": " glowed",
  "5760": " eats",
  "5761": " doggy",
  "5762": " dot",
  "5763": " cubes",
  "5764": " created",
  "5765": " brushes",
  "5766": " avocados",
  "5767": " argued",
  "5768": " alien",
  "5769": " airpl",
  "5770": " activ",
  "5771": " awe",
  "5772": " Sparky",
  "5773": " Someone",
  "5774": " Pinky",
  "5775": " Missile",
  "5776": " May",
  "5777": " Izzy",
  "5778": " Henny",
  "5779": " Always",
  "5780": "xury",
  "5781": "ulie",
  "5782": "uxury",
  "5783": "uke",
  "5784": "ppers",
  "5785": "mother",
  "5786": "iam",
  "5787": "elvet",
  "5788": "araway",
  "5789": "allow",
  "5790": "ah",
  "5791": "Un",
  "5792": " ‘",
  "5793": " youth",
  "5794": " wears",
  "5795": " wed",
  "5796": " traveled",
  "5797": " tugged",
  "5798": " sweeties",
  "5799": " supposed",
  "5800": " students",
  "5801": " stretching",
  "5802": " sticking",
  "5803": " steep",
  "5804": " screaming",
  "5805": " removed",
  "5806": " remote",
  "5807": " radishes",
  "5808": " pots",
  "5809": " nicer",
  "5810": " mountains",
  "5811": " melting",
  "5812": " marbles",
  "5813": " master",
  "5814": " loving",
  "5815": " leader",
  "5816": " keeper",
  "5817": " jewels",
  "5818": " inch",
  "5819": " healed",
  "5820": " guest",
  "5821": " faraway",
  "5822": " effort",
  "5823": " destination",
  "5824": " decides",
  "5825": " chirped",
  "5826": " cheering",
  "5827": " crow",
  "5828": " balancing",
  "5829": " area",
  "5830": " Tw",
  "5831": " Titi",
  "5832": " Squ",
  "5833": " Splash",
  "5834": " First",
  "5835": " Dodo",
  "5836": " Cindy",
  "5837": " Annie",
  "5838": "”.",
  "5839": "osity",
  "5840": "loe",
  "5841": "ission",
  "5842": "hee",
  "5843": "True",
  "5844": "Time",
  "5845": "Shh",
  "5846": "Ollie",
  "5847": "James",
  "5848": "Cl",
  "5849": " yelling",
  "5850": " tricked",
  "5851": " stripes",
  "5852": " snakes",
  "5853": " sled",
  "5854": " situ",
  "5855": " revealed",
  "5856": " realize",
  "5857": " praying",
  "5858": " prop",
  "5859": " polished",
  "5860": " owned",
  "5861": " monsters",
  "5862": " hated",
  "5863": " hitting",
  "5864": " deser",
  "5865": " delivered",
  "5866": " claps",
  "5867": " cough",
  "5868": " buckets",
  "5869": " Sad",
  "5870": " Moon",
  "5871": " Mon",
  "5872": " Cra",
  "5873": " Yes",
  "5874": "jam",
  "5875": "boo",
  "5876": "aws",
  "5877": "avi",
  "5878": "agull",
  "5879": "affes",
  "5880": "Ex",
  "5881": "Boo",
  "5882": " wherever",
  "5883": " tickle",
  "5884": " talent",
  "5885": " staying",
  "5886": " seems",
  "5887": " secrets",
  "5888": " seagull",
  "5889": " safer",
  "5890": " provided",
  "5891": " permission",
  "5892": " parked",
  "5893": " opening",
  "5894": " measuring",
  "5895": " mane",
  "5896": " luxury",
  "5897": " giraffes",
  "5898": " frost",
  "5899": " fears",
  "5900": " faced",
  "5901": " earlier",
  "5902": " cuts",
  "5903": " continue",
  "5904": " complaining",
  "5905": " crew",
  "5906": " beside",
  "5907": " bakery",
  "5908": " Velvet",
  "5909": " Tuna",
  "5910": " Jacob",
  "5911": " Chicky",
  "5912": " Boo",
  "5913": " An",
  "5914": " Once",
  "5915": " 1",
  "5916": "usty",
  "5917": "ues",
  "5918": "mies",
  "5919": "isty",
  "5920": "int",
  "5921": "ifi",
  "5922": "ha",
  "5923": "esome",
  "5924": "cus",
  "5925": "anging",
  "5926": "Rob",
  "5927": "Ro",
  "5928": "Rex",
  "5929": "Meow",
  "5930": "'.",
  "5931": " windy",
  "5932": " touching",
  "5933": " tails",
  "5934": " sweat",
  "5935": " struggled",
  "5936": " shooting",
  "5937": " rule",
  "5938": " refuse",
  "5939": " rele",
  "5940": " pupil",
  "5941": " proper",
  "5942": " pans",
  "5943": " paints",
  "5944": " magnets",
  "5945": " horns",
  "5946": " heroes",
  "5947": " feeding",
  "5948": " dusty",
  "5949": " discovery",
  "5950": " darker",
  "5951": " candies",
  "5952": " bleeding",
  "5953": " bare",
  "5954": " awesome",
  "5955": " admiring",
  "5956": " actually",
  "5957": " actions",
  "5958": " acting",
  "5959": " Earth",
  "5960": " Duck",
  "5961": " David",
  "5962": "uckily",
  "5963": "quid",
  "5964": "pie",
  "5965": "ouch",
  "5966": "ora",
  "5967": "ners",
  "5968": "ls",
  "5969": "iar",
  "5970": "dies",
  "5971": "anta",
  "5972": "aster",
  "5973": "Stay",
  "5974": "Jo",
  "5975": " weeks",
  "5976": " wedding",
  "5977": " wasted",
  "5978": " wanting",
  "5979": " wiz",
  "5980": " valued",
  "5981": " vict",
  "5982": " twisty",
  "5983": " tune",
  "5984": " toss",
  "5985": " timer",
  "5986": " teamwork",
  "5987": " surrounded",
  "5988": " struggling",
  "5989": " spraying",
  "5990": " spaceship",
  "5991": " sneaky",
  "5992": " shrug",
  "5993": " restored",
  "5994": " prettiest",
  "5995": " patiently",
  "5996": " onwards",
  "5997": " obe",
  "5998": " neighbourhood",
  "5999": " neighbors",
  "6000": " liquid",
  "6001": " hesit",
  "6002": " helmets",
  "6003": " glasses",
  "6004": " foods",
  "6005": " flags",
  "6006": " dinosaurs",
  "6007": " died",
  "6008": " creation",
  "6009": " contest",
  "6010": " contain",
  "6011": " company",
  "6012": " bedtime",
  "6013": " awake",
  "6014": " Water",
  "6015": " Rover",
  "6016": " Re",
  "6017": " Kids",
  "6018": " Dino",
  "6019": " Bye",
  "6020": "screen",
  "6021": "rian",
  "6022": "lee",
  "6023": "go",
  "6024": "enty",
  "6025": "compl",
  "6026": "band",
  "6027": "ashed",
  "6028": "amie",
  "6029": "ads",
  "6030": "Tiny",
  "6031": "George",
  "6032": "Ew",
  "6033": " worker",
  "6034": " succeeded",
  "6035": " stare",
  "6036": " sights",
  "6037": " siren",
  "6038": " scooters",
  "6039": " sings",
  "6040": " recognized",
  "6041": " quacked",
  "6042": " project",
  "6043": " pride",
  "6044": " polishing",
  "6045": " poking",
  "6046": " paying",
  "6047": " paintings",
  "6048": " obey",
  "6049": " loaded",
  "6050": " insist",
  "6051": " glitter",
  "6052": " frosting",
  "6053": " crept",
  "6054": " chef",
  "6055": " catches",
  "6056": " bloomed",
  "6057": " appreciate",
  "6058": " achie",
  "6059": " Spring",
  "6060": " Slowly",
  "6061": " Santa",
  "6062": " Quick",
  "6063": " Like",
  "6064": " Keep",
  "6065": " Kay",
  "6066": " X",
  "6067": "ulp",
  "6068": "uffin",
  "6069": "uctions",
  "6070": "scin",
  "6071": "nie",
  "6072": "ays",
  "6073": "Whiskers",
  "6074": "Remember",
  "6075": "Pete",
  "6076": "Paul",
  "6077": "Mrs",
  "6078": "During",
  "6079": "...\"",
  "6080": " traded",
  "6081": " thud",
  "6082": " splashes",
  "6083": " sighs",
  "6084": " seven",
  "6085": " scooped",
  "6086": " scattering",
  "6087": " ribbons",
  "6088": " rescued",
  "6089": " prec",
  "6090": " penguins",
  "6091": " pears",
  "6092": " peppers",
  "6093": " patience",
  "6094": " passports",
  "6095": " nails",
  "6096": " mittens",
  "6097": " mes",
  "6098": " instructions",
  "6099": " honk",
  "6100": " hi",
  "6101": " guys",
  "6102": " flutter",
  "6103": " flav",
  "6104": " fascin",
  "6105": " eight",
  "6106": " diving",
  "6107": " demanded",
  "6108": " cushions",
  "6109": " cones",
  "6110": " comple",
  "6111": " comm",
  "6112": " celebration",
  "6113": " bringing",
  "6114": " blows",
  "6115": " blooming",
  "6116": " beads",
  "6117": " balanced",
  "6118": " airplane",
  "6119": " accompl",
  "6120": " Luke",
  "6121": " Lenny",
  "6122": " Jessie",
  "6123": " Frog",
  "6124": " Fifi",
  "6125": " Everyday",
  "6126": " Dr",
  "6127": " Blink",
  "6128": " Ally",
  "6129": "zie",
  "6130": "ults",
  "6131": "uctantly",
  "6132": "lets",
  "6133": "lict",
  "6134": "iggy",
  "6135": "die",
  "6136": "big",
  "6137": "Zoomy",
  "6138": "Uh",
  "6139": "Our",
  "6140": "Luna",
  "6141": "Jake",
  "6142": "Have",
  "6143": "Fo",
  "6144": "First",
  "6145": "Bad",
  "6146": "Achoo",
  "6147": " wizard",
  "6148": " visiting",
  "6149": " villag",
  "6150": " usual",
  "6151": " untie",
  "6152": " unf",
  "6153": " todd",
  "6154": " starfish",
  "6155": " scales",
  "6156": " sadness",
  "6157": " reminder",
  "6158": " refre",
  "6159": " purred",
  "6160": " protecting",
  "6161": " protected",
  "6162": " pause",
  "6163": " organizing",
  "6164": " officer",
  "6165": " oat",
  "6166": " mission",
  "6167": " learns",
  "6168": " laying",
  "6169": " homework",
  "6170": " goodnight",
  "6171": " froze",
  "6172": " explorers",
  "6173": " examined",
  "6174": " drives",
  "6175": " conflict",
  "6176": " baker",
  "6177": " backward",
  "6178": " boo",
  "6179": " applauded",
  "6180": " apologize",
  "6181": " Muffin",
  "6182": " Leave",
  "6183": " Gogo",
  "6184": " Friends",
  "6185": " Behind",
  "6186": "step",
  "6187": "rance",
  "6188": "ords",
  "6189": "jo",
  "6190": "iders",
  "6191": "ern",
  "6192": "bigail",
  "6193": "bbled",
  "6194": "bl",
  "6195": "arter",
  "6196": "actly",
  "6197": "aa",
  "6198": "Tweet",
  "6199": "Somet",
  "6200": " yesterday",
  "6201": " wins",
  "6202": " whatever",
  "6203": " wound",
  "6204": " victory",
  "6205": " toddler",
  "6206": " struck",
  "6207": " spikes",
  "6208": " spells",
  "6209": " smiley",
  "6210": " smallest",
  "6211": " smarter",
  "6212": " shivered",
  "6213": " rides",
  "6214": " released",
  "6215": " reluctantly",
  "6216": " recording",
  "6217": " prettier",
  "6218": " planets",
  "6219": " pastels",
  "6220": " muscle",
  "6221": " leading",
  "6222": " helpers",
  "6223": " guns",
  "6224": " firefight",
  "6225": " figures",
  "6226": " dragged",
  "6227": " dipped",
  "6228": " cracked",
  "6229": " changing",
  "6230": " cause",
  "6231": " barely",
  "6232": " Yesterday",
  "6233": " Thomas",
  "6234": " Pippa",
  "6235": " Pepper",
  "6236": " Moo",
  "6237": " Love",
  "6238": " Jessica",
  "6239": " Jenna",
  "6240": " Hopper",
  "6241": " Green",
  "6242": " Gr",
  "6243": " Get",
  "6244": " Elephant",
  "6245": " Chloe",
  "6246": " Beep",
  "6247": " Am",
  "6248": " Q",
  "6249": "nies",
  "6250": "jamas",
  "6251": "ho",
  "6252": "anna",
  "6253": "Teddy",
  "6254": "Ste",
  "6255": "Silly",
  "6256": "Millie",
  "6257": "Jerry",
  "6258": "Grandpa",
  "6259": "An",
  "6260": " warnings",
  "6261": " vent",
  "6262": " united",
  "6263": " sunlight",
  "6264": " stole",
  "6265": " stern",
  "6266": " sprinkles",
  "6267": " shirts",
  "6268": " rockets",
  "6269": " reply",
  "6270": " rings",
  "6271": " precious",
  "6272": " packing",
  "6273": " inviting",
  "6274": " hugging",
  "6275": " firemen",
  "6276": " exactly",
  "6277": " delivering",
  "6278": " die",
  "6279": " dam",
  "6280": " covers",
  "6281": " click",
  "6282": " cous",
  "6283": " buzzing",
  "6284": " bowls",
  "6285": " behavi",
  "6286": " becoming",
  "6287": " bank",
  "6288": " anytime",
  "6289": " annoy",
  "6290": " Squirrel",
  "6291": " Sure",
  "6292": " Robert",
  "6293": " Rollie",
  "6294": " Rabbit",
  "6295": " Princess",
  "6296": " Meg",
  "6297": " Marie",
  "6298": " Hippy",
  "6299": " Gir",
  "6300": " Chew",
  "6301": " Betsy",
  "6302": "ueen",
  "6303": "uly",
  "6304": "rink",
  "6305": "irm",
  "6306": "iding",
  "6307": "guing",
  "6308": "fied",
  "6309": "eah",
  "6310": "bly",
  "6311": "Unfortunately",
  "6312": "Su",
  "6313": "Oops",
  "6314": "Milly",
  "6315": "Ah",
  "6316": " wraps",
  "6317": " wiggled",
  "6318": " whose",
  "6319": " weren",
  "6320": " wid",
  "6321": " villagers",
  "6322": " vines",
  "6323": " tickets",
  "6324": " sports",
  "6325": " sparkles",
  "6326": " snowballs",
  "6327": " situation",
  "6328": " separated",
  "6329": " sending",
  "6330": " sense",
  "6331": " refle",
  "6332": " quarreling",
  "6333": " princesses",
  "6334": " possible",
  "6335": " peered",
  "6336": " peas",
  "6337": " pajamas",
  "6338": " pins",
  "6339": " misses",
  "6340": " masks",
  "6341": " joked",
  "6342": " introduc",
  "6343": " gotten",
  "6344": " fault",
  "6345": " cuddle",
  "6346": " complained",
  "6347": " cocoon",
  "6348": " chips",
  "6349": " arrive",
  "6350": " arguing",
  "6351": " activities",
  "6352": " Unfortunately",
  "6353": " Turtle",
  "6354": " Top",
  "6355": " Star",
  "6356": " Robo",
  "6357": " Queen",
  "6358": " Po",
  "6359": " Joy",
  "6360": " Jilly",
  "6361": " Hor",
  "6362": " Dara",
  "6363": " Buggy",
  "6364": " By",
  "6365": " Because",
  "6366": "rey",
  "6367": "dam",
  "6368": "cuse",
  "6369": "bric",
  "6370": "atches",
  "6371": "anie",
  "6372": "Ru",
  "6373": "Or",
  "6374": "Mar",
  "6375": "Mandy",
  "6376": "Lilly",
  "6377": "Dave",
  "6378": "Buzz",
  "6379": " yells",
  "6380": " widened",
  "6381": " woof",
  "6382": " twirl",
  "6383": " tricky",
  "6384": " travell",
  "6385": " tractor",
  "6386": " truly",
  "6387": " thro",
  "6388": " teased",
  "6389": " superheroes",
  "6390": " startled",
  "6391": " spins",
  "6392": " spiders",
  "6393": " somebody",
  "6394": " snatched",
  "6395": " scarves",
  "6396": " sides",
  "6397": " requested",
  "6398": " rainbows",
  "6399": " properly",
  "6400": " powers",
  "6401": " pockets",
  "6402": " plenty",
  "6403": " perched",
  "6404": " paths",
  "6405": " pout",
  "6406": " naps",
  "6407": " motion",
  "6408": " mailed",
  "6409": " knocks",
  "6410": " kicks",
  "6411": " items",
  "6412": " itchy",
  "6413": " increased",
  "6414": " improved",
  "6415": " hus",
  "6416": " growling",
  "6417": " groups",
  "6418": " greet",
  "6419": " grandmother",
  "6420": " gri",
  "6421": " forgiving",
  "6422": " forehead",
  "6423": " fascinated",
  "6424": " farther",
  "6425": " fabric",
  "6426": " firm",
  "6427": " discovering",
  "6428": " curiosity",
  "6429": " cuddly",
  "6430": " completed",
  "6431": " choices",
  "6432": " chirping",
  "6433": " caused",
  "6434": " brand",
  "6435": " bounces",
  "6436": " blocking",
  "6437": " biting",
  "6438": " bells",
  "6439": " belly",
  "6440": " Zipper",
  "6441": " Want",
  "6442": " Tara",
  "6443": " Stay",
  "6444": " Snowman",
  "6445": " Lena",
  "6446": " Hoot",
  "6447": " Giraffe",
  "6448": " Foxy",
  "6449": " Fishy",
  "6450": " En",
  "6451": " Chess",
  "6452": " Barry",
  "6453": "vin",
  "6454": "uture",
  "6455": "though",
  "6456": "steps",
  "6457": "seek",
  "6458": "inkle",
  "6459": "ining",
  "6460": "eff",
  "6461": "anes",
  "6462": "aker",
  "6463": "Yeah",
  "6464": "Sometimes",
  "6465": "Pe",
  "6466": "Listen",
  "6467": "Hold",
  "6468": "Excuse",
  "6469": "Charlie",
  "6470": " worries",
  "6471": " usually",
  "6472": " tunnels",
  "6473": " throat",
  "6474": " swoop",
  "6475": " swit",
  "6476": " stands",
  "6477": " sobbed",
  "6478": " soaring",
  "6479": " shrinking",
  "6480": " rocking",
  "6481": " rip",
  "6482": " rewarded",
  "6483": " reaching",
  "6484": " promises",
  "6485": " pops",
  "6486": " policeman",
  "6487": " polar",
  "6488": " pointy",
  "6489": " observed",
  "6490": " neither",
  "6491": " nine",
  "6492": " listens",
  "6493": " images",
  "6494": " honked",
  "6495": " handful",
  "6496": " hallway",
  "6497": " giggling",
  "6498": " folding",
  "6499": " future",
  "6500": " direction",
  "6501": " dived",
  "6502": " dar",
  "6503": " curtains",
  "6504": " creating",
  "6505": " chases",
  "6506": " buzzed",
  "6507": " behaving",
  "6508": " bur",
  "6509": " Woo",
  "6510": " Uncle",
  "6511": " Truck",
  "6512": " Sparkle",
  "6513": " Shadow",
  "6514": " Say",
  "6515": " Prince",
  "6516": " Put",
  "6517": " Patch",
  "6518": " Oak",
  "6519": " Holly",
  "6520": " Brownie",
  "6521": "—",
  "6522": "yond",
  "6523": "ustom",
  "6524": "urried",
  "6525": "une",
  "6526": "tuce",
  "6527": "onge",
  "6528": "nk",
  "6529": "lowers",
  "6530": "lay",
  "6531": "iggie",
  "6532": "ido",
  "6533": "eds",
  "6534": "cakes",
  "6535": "blings",
  "6536": "bie",
  "6537": "ason",
  "6538": "angled",
  "6539": "abella",
  "6540": "Sunny",
  "6541": "Quack",
  "6542": "Maggie",
  "6543": "Henry",
  "6544": "Car",
  "6545": "==",
  "6546": " whispers",
  "6547": " vanilla",
  "6548": " untied",
  "6549": " unp",
  "6550": " tasks",
  "6551": " suffered",
  "6552": " stays",
  "6553": " staring",
  "6554": " sponge",
  "6555": " siblings",
  "6556": " seesaw",
  "6557": " scurried",
  "6558": " sank",
  "6559": " repa",
  "6560": " pretends",
  "6561": " noses",
  "6562": " nests",
  "6563": " napkins",
  "6564": " movies",
  "6565": " lettuce",
  "6566": " leaning",
  "6567": " lap",
  "6568": " interested",
  "6569": " husband",
  "6570": " growls",
  "6571": " grows",
  "6572": " gasp",
  "6573": " gross",
  "6574": " firefly",
  "6575": " everyday",
  "6576": " dropping",
  "6577": " deserve",
  "6578": " dent",
  "6579": " corners",
  "6580": " contro",
  "6581": " completely",
  "6582": " chuck",
  "6583": " chop",
  "6584": " celebrating",
  "6585": " cans",
  "6586": " custom",
  "6587": " cent",
  "6588": " bracelets",
  "6589": " bodies",
  "6590": " beyond",
  "6591": " basement",
  "6592": " avo",
  "6593": " agrees",
  "6594": " ast",
  "6595": " Olly",
  "6596": " Nothing",
  "6597": " Mouse",
  "6598": " However",
  "6599": " Gina",
  "6600": " For",
  "6601": " Birdie",
  "6602": "utty",
  "6603": "uzzy",
  "6604": "pite",
  "6605": "ounce",
  "6606": "ooed",
  "6607": "joyed",
  "6608": "itely",
  "6609": "iley",
  "6610": "eed",
  "6611": "awn",
  "6612": "Whee",
  "6613": "Very",
  "6614": "Those",
  "6615": "Susie",
  "6616": "Run",
  "6617": "Lola",
  "6618": "Doggy",
  "6619": "Chirpy",
  "6620": "Bunny",
  "6621": "Big",
  "6622": "?'",
  "6623": " yum",
  "6624": " wobbly",
  "6625": " wishing",
  "6626": " ventured",
  "6627": " vowed",
  "6628": " tickled",
  "6629": " tearing",
  "6630": " sweets",
  "6631": " surface",
  "6632": " supplies",
  "6633": " squares",
  "6634": " squishy",
  "6635": " spreading",
  "6636": " speaking",
  "6637": " slam",
  "6638": " singer",
  "6639": " sails",
  "6640": " replaced",
  "6641": " repaired",
  "6642": " reads",
  "6643": " ranger",
  "6644": " pumpkins",
  "6645": " practicing",
  "6646": " potion",
  "6647": " peeking",
  "6648": " patted",
  "6649": " partic",
  "6650": " merry",
  "6651": " losing",
  "6652": " keys",
  "6653": " however",
  "6654": " fact",
  "6655": " dots",
  "6656": " dollar",
  "6657": " confident",
  "6658": " bravery",
  "6659": " batteries",
  "6660": " backwards",
  "6661": " accomplish",
  "6662": " Whist",
  "6663": " Wink",
  "6664": " Twinkle",
  "6665": " Sofia",
  "6666": " Pup",
  "6667": " Pine",
  "6668": " Pam",
  "6669": " Our",
  "6670": " Nice",
  "6671": " Mix",
  "6672": " Julie",
  "6673": " Jolly",
  "6674": " Horsy",
  "6675": " Ex",
  "6676": " Crab",
  "6677": " Cow",
  "6678": " \n ",
  "6679": "usted",
  "6680": "order",
  "6681": "ivi",
  "6682": "fly",
  "6683": "father",
  "6684": "eal",
  "6685": "ctions",
  "6686": "cl",
  "6687": "Yummy",
  "6688": "Spike",
  "6689": "Some",
  "6690": "Ruby",
  "6691": "Pipp",
  "6692": "Mine",
  "6693": "Lulu",
  "6694": "Le",
  "6695": "Great",
  "6696": "Fine",
  "6697": "?\",",
  "6698": " workers",
  "6699": " wires",
  "6700": " wandering",
  "6701": " uses",
  "6702": " unpacked",
  "6703": " twinkling",
  "6704": " student",
  "6705": " stroked",
  "6706": " steady",
  "6707": " stem",
  "6708": " stain",
  "6709": " sprang",
  "6710": " softer",
  "6711": " snowmen",
  "6712": " shorts",
  "6713": " scratches",
  "6714": " satis",
  "6715": " rotting",
  "6716": " rolls",
  "6717": " roses",
  "6718": " ripe",
  "6719": " refreshed",
  "6720": " reflection",
  "6721": " risk",
  "6722": " pouring",
  "6723": " poster",
  "6724": " players",
  "6725": " planning",
  "6726": " paddle",
  "6727": " padd",
  "6728": " pec",
  "6729": " outdo",
  "6730": " necklaces",
  "6731": " ni",
  "6732": " mommies",
  "6733": " minerals",
  "6734": " marked",
  "6735": " lighter",
  "6736": " knees",
  "6737": " guests",
  "6738": " grip",
  "6739": " footsteps",
  "6740": " flames",
  "6741": " firefighters",
  "6742": " filling",
  "6743": " entrance",
  "6744": " entire",
  "6745": " dolphins",
  "6746": " dentist",
  "6747": " decorating",
  "6748": " deal",
  "6749": " counts",
  "6750": " competition",
  "6751": " comforted",
  "6752": " chefs",
  "6753": " choo",
  "6754": " calmed",
  "6755": " aside",
  "6756": " arrows",
  "6757": " Without",
  "6758": " Suzie",
  "6759": " Sorry",
  "6760": " Sl",
  "6761": " Paws",
  "6762": " Ol",
  "6763": " Nick",
  "6764": " Monster",
  "6765": " Fit",
  "6766": " Enjoy",
  "6767": " Birthday",
  "6768": " Biggie",
  "6769": "zes",
  "6770": "xie",
  "6771": "vroom",
  "6772": "umbling",
  "6773": "uri",
  "6774": "sty",
  "6775": "sequ",
  "6776": "sequence",
  "6777": "rixie",
  "6778": "oline",
  "6779": "ledge",
  "6780": "iles",
  "6781": "hausted",
  "6782": "ercy",
  "6783": "ently",
  "6784": "ela",
  "6785": "brush",
  "6786": "aye",
  "6787": "ampoline",
  "6788": "alph",
  "6789": "Zoom",
  "6790": "Take",
  "6791": "Steve",
  "6792": "Sn",
  "6793": "Roar",
  "6794": "Out",
  "6795": "Mike",
  "6796": "Luckily",
  "6797": "Lizzy",
  "6798": "Katie",
  "6799": "Get",
  "6800": "Follow",
  "6801": "Ellie",
  "6802": "Dolly",
  "6803": "Bear",
  "6804": "Annie",
  "6805": " winked",
  "6806": " watering",
  "6807": " waiter",
  "6808": " wow",
  "6809": " trampoline",
  "6810": " towels",
  "6811": " touches",
  "6812": " third",
  "6813": " tiss",
  "6814": " tangled",
  "6815": " surfing",
  "6816": " supported",
  "6817": " strongest",
  "6818": " steer",
  "6819": " stool",
  "6820": " single",
  "6821": " signed",
  "6822": " shovels",
  "6823": " shelves",
  "6824": " seeker",
  "6825": " respons",
  "6826": " remembering",
  "6827": " relief",
  "6828": " recorder",
  "6829": " rising",
  "6830": " prayer",
  "6831": " piggy",
  "6832": " performed",
  "6833": " pastries",
  "6834": " passing",
  "6835": " overjoyed",
  "6836": " outdoors",
  "6837": " opp",
  "6838": " notes",
  "6839": " mood",
  "6840": " lollipops",
  "6841": " licking",
  "6842": " least",
  "6843": " knowledge",
  "6844": " included",
  "6845": " hider",
  "6846": " heav",
  "6847": " flavor",
  "6848": " flapping",
  "6849": " elbow",
  "6850": " drums",
  "6851": " desert",
  "6852": " consequence",
  "6853": " conn",
  "6854": " closes",
  "6855": " chuckled",
  "6856": " cheeks",
  "6857": " chat",
  "6858": " burns",
  "6859": " begin",
  "6860": " beam",
  "6861": " bathing",
  "6862": " bunch",
  "6863": " Zee",
  "6864": " Yawn",
  "6865": " Tweetie",
  "6866": " Stella",
  "6867": " Sw",
  "6868": " Pu",
  "6869": " Jojo",
  "6870": " Jeff",
  "6871": " Hur",
  "6872": " Goodbye",
  "6873": " Dizzy",
  "6874": " Brian",
  "6875": " Book",
  "6876": " Anne",
  "6877": " Aunt",
  "6878": " Abigail",
  "6879": "  ",
  "6880": "urtles",
  "6881": "urious",
  "6882": "ths",
  "6883": "rrr",
  "6884": "romise",
  "6885": "ossible",
  "6886": "no",
  "6887": "isions",
  "6888": "inny",
  "6889": "icha",
  "6890": "ichael",
  "6891": "fall",
  "6892": "een",
  "6893": "bert",
  "6894": "autious",
  "6895": "Rose",
  "6896": "Penny",
  "6897": "May",
  "6898": "Jump",
  "6899": "Harry",
  "6900": "Danny",
  "6901": " wipes",
  "6902": " whistles",
  "6903": " twirling",
  "6904": " toaster",
  "6905": " thorn",
  "6906": " tables",
  "6907": " turtles",
  "6908": " swooped",
  "6909": " swords",
  "6910": " surroundings",
  "6911": " stew",
  "6912": " squeaked",
  "6913": " spat",
  "6914": " sneezing",
  "6915": " ships",
  "6916": " sewed",
  "6917": " sale",
  "6918": " rocked",
  "6919": " rains",
  "6920": " rusty",
  "6921": " rumble",
  "6922": " prayers",
  "6923": " particular",
  "6924": " ornaments",
  "6925": " mushrooms",
  "6926": " minded",
  "6927": " matters",
  "6928": " machines",
  "6929": " loading",
  "6930": " kittens",
  "6931": " joining",
  "6932": " introduced",
  "6933": " instrum",
  "6934": " impossible",
  "6935": " humans",
  "6936": " hesitated",
  "6937": " forgiven",
  "6938": " fits",
  "6939": " fairies",
  "6940": " exhausted",
  "6941": " ends",
  "6942": " decisions",
  "6943": " darkness",
  "6944": " darling",
  "6945": " dancers",
  "6946": " cousin",
  "6947": " control",
  "6948": " consequences",
  "6949": " bru",
  "6950": " blown",
  "6951": " baths",
  "6952": " bars",
  "6953": " backpacks",
  "6954": " adding",
  "6955": " achieve",
  "6956": " aimed",
  "6957": " aff",
  "6958": " Ziggy",
  "6959": " Vivi",
  "6960": " Softy",
  "6961": " Sc",
  "6962": " Reg",
  "6963": " Ph",
  "6964": " Oxy",
  "6965": " Nutty",
  "6966": " Lau",
  "6967": " Kaylee",
  "6968": " Jones",
  "6969": " Janie",
  "6970": " Jamie",
  "6971": " Hurricane",
  "6972": " Fido",
  "6973": " Beth",
  "6974": " Belle",
  "6975": " 10",
  "6976": " icing",
  "6977": "you",
  "6978": "ters",
  "6979": "sm",
  "6980": "shing",
  "6981": "oke",
  "6982": "ody",
  "6983": "ndy",
  "6984": "neath",
  "6985": "lle",
  "6986": "hi",
  "6987": "gers",
  "6988": "ept",
  "6989": "eese",
  "6990": "dding",
  "6991": "chy",
  "6992": "ces",
  "6993": "cited",
  "6994": "cie",
  "6995": "alloween",
  "6996": "ading",
  "6997": "ades",
  "6998": "abel",
  "6999": "Grace",
  "7000": "Co",
  "7001": "Beep",
  "7002": "Bet",
  "7003": "Baby",
  "7004": "Alex",
  "7005": " yourselves",
  "7006": " wrist",
  "7007": " wee",
  "7008": " wakes",
  "7009": " uns",
  "7010": " und",
  "7011": " twisting",
  "7012": " tighter",
  "7013": " tested",
  "7014": " talents",
  "7015": " swimmer",
  "7016": " stung",
  "7017": " stumble",
  "7018": " sparks",
  "7019": " slowed",
  "7020": " slammed",
  "7021": " skirts",
  "7022": " sewing",
  "7023": " salty",
  "7024": " robber",
  "7025": " regretted",
  "7026": " prick",
  "7027": " nodding",
  "7028": " neare",
  "7029": " nuzz",
  "7030": " mesmer",
  "7031": " loops",
  "7032": " lending",
  "7033": " jackets",
  "7034": " heavier",
  "7035": " health",
  "7036": " heading",
  "7037": " guide",
  "7038": " grandfather",
  "7039": " gracefully",
  "7040": " gobbled",
  "7041": " ghosts",
  "7042": " goo",
  "7043": " geese",
  "7044": " frowning",
  "7045": " forks",
  "7046": " forgets",
  "7047": " fever",
  "7048": " fart",
  "7049": " erase",
  "7050": " doctors",
  "7051": " directions",
  "7052": " determination",
  "7053": " curly",
  "7054": " crumb",
  "7055": " clowns",
  "7056": " carts",
  "7057": " bumps",
  "7058": " angels",
  "7059": " aloud",
  "7060": " Wo",
  "7061": " Toot",
  "7062": " Those",
  "7063": " Toys",
  "7064": " Spirit",
  "7065": " Shiver",
  "7066": " Sadly",
  "7067": " Rudy",
  "7068": " Pink",
  "7069": " Other",
  "7070": " Mill",
  "7071": " Mild",
  "7072": " Mam",
  "7073": " Liam",
  "7074": " Jennie",
  "7075": " Jacky",
  "7076": " Ju",
  "7077": " Faye",
  "7078": " Dina",
  "7079": "ronaut",
  "7080": "reverse",
  "7081": "oosh",
  "7082": "iversity",
  "7083": "its",
  "7084": "iggles",
  "7085": "iel",
  "7086": "Vroom",
  "7087": "Shrink",
  "7088": "Sad",
  "7089": "Lina",
  "7090": "Kim",
  "7091": "Keep",
  "7092": "For",
  "7093": "Even",
  "7094": "Elly",
  "7095": "...",
  "7096": ".'\"",
  "7097": "--",
  "7098": " yielded",
  "7099": " warmer",
  "7100": " videos",
  "7101": " underneath",
  "7102": " tweet",
  "7103": " tissue",
  "7104": " switched",
  "7105": " sweaty",
  "7106": " swept",
  "7107": " sunscreen",
  "7108": " stroll",
  "7109": " solut",
  "7110": " snuck",
  "7111": " slipping",
  "7112": " skunk",
  "7113": " self",
  "7114": " sy",
  "7115": " ruining",
  "7116": " rubs",
  "7117": " rows",
  "7118": " pos",
  "7119": " pleaded",
  "7120": " performing",
  "7121": " pecked",
  "7122": " paintbrush",
  "7123": " outf",
  "7124": " objects",
  "7125": " models",
  "7126": " magpie",
  "7127": " mater",
  "7128": " loses",
  "7129": " lies",
  "7130": " leap",
  "7131": " insects",
  "7132": " hopeful",
  "7133": " honesty",
  "7134": " hides",
  "7135": " glued",
  "7136": " frowns",
  "7137": " fleas",
  "7138": " feast",
  "7139": " farthest",
  "7140": " ev",
  "7141": " donkey",
  "7142": " dollhouse",
  "7143": " disob",
  "7144": " den",
  "7145": " customer",
  "7146": " crumbs",
  "7147": " countryside",
  "7148": " combed",
  "7149": " cobwebs",
  "7150": " cor",
  "7151": " cautious",
  "7152": " breathed",
  "7153": " badge",
  "7154": " bun",
  "7155": " bumpy",
  "7156": " avoid",
  "7157": " astronaut",
  "7158": " annoyed",
  "7159": " among",
  "7160": " active",
  "7161": " Zero",
  "7162": " Trust",
  "7163": " Thanks",
  "7164": " Try",
  "7165": " Tippy",
  "7166": " Te",
  "7167": " Suki",
  "7168": " Starry",
  "7169": " Sadie",
  "7170": " Se",
  "7171": " Match",
  "7172": " Lina",
  "7173": " Jon",
  "7174": " Frosty",
  "7175": " Fle",
  "7176": " Didi",
  "7177": " Cro",
  "7178": "uren",
  "7179": "ulpture",
  "7180": "rup",
  "7181": "rops",
  "7182": "rin",
  "7183": "piece",
  "7184": "oring",
  "7185": "llen",
  "7186": "iolet",
  "7187": "indrops",
  "7188": "ilo",
  "7189": "igers",
  "7190": "elia",
  "7191": "ddie",
  "7192": "cept",
  "7193": "cc",
  "7194": "bbie",
  "7195": "arac",
  "7196": "ans",
  "7197": "aned",
  "7198": "addie",
  "7199": "auren",
  "7200": "Pippin",
  "7201": "Put",
  "7202": "Lena",
  "7203": "Gina",
  "7204": "Clara",
  "7205": "Che",
  "7206": "Betty",
  "7207": "Buzzy",
  "7208": "Boys",
  "7209": "Bow",
  "7210": " zooms",
  "7211": " visitors",
  "7212": " unsure",
  "7213": " unw",
  "7214": " trusting",
  "7215": " treehouse",
  "7216": " tipto",
  "7217": " talented",
  "7218": " tipped",
  "7219": " tigers",
  "7220": " stuffing",
  "7221": " squeezing",
  "7222": " spits",
  "7223": " slower",
  "7224": " slither",
  "7225": " shown",
  "7226": " scrub",
  "7227": " sculpture",
  "7228": " scra",
  "7229": " sway",
  "7230": " sens",
  "7231": " responsible",
  "7232": " reminds",
  "7233": " rever",
  "7234": " reason",
  "7235": " rainy",
  "7236": " raindrops",
  "7237": " rather",
  "7238": " purr",
  "7239": " printing",
  "7240": " prickly",
  "7241": " prevented",
  "7242": " planting",
  "7243": " plain",
  "7244": " occ",
  "7245": " materi",
  "7246": " masterpiece",
  "7247": " markers",
  "7248": " munch",
  "7249": " loudest",
  "7250": " leads",
  "7251": " knocking",
  "7252": " joins",
  "7253": " including",
  "7254": " imagining",
  "7255": " ignoring",
  "7256": " halves",
  "7257": " gazing",
  "7258": " flight",
  "7259": " fans",
  "7260": " earn",
  "7261": " dragonfly",
  "7262": " dod",
  "7263": " designed",
  "7264": " def",
  "7265": " damage",
  "7266": " curiously",
  "7267": " creams",
  "7268": " charac",
  "7269": " cash",
  "7270": " buying",
  "7271": " blinking",
  "7272": " backed",
  "7273": " ashes",
  "7274": " anger",
  "7275": " age",
  "7276": " afterwards",
  "7277": " adults",
  "7278": " ache",
  "7279": " aud",
  "7280": " Whistle",
  "7281": " Wiggles",
  "7282": " Tam",
  "7283": " Percy",
  "7284": " Pen",
  "7285": " Megan",
  "7286": " Mother",
  "7287": " Mint",
  "7288": " Listen",
  "7289": " Laser",
  "7290": " Hold",
  "7291": " Halloween",
  "7292": " Davey",
  "7293": " Day",
  "7294": " Chick",
  "7295": " Candy",
  "7296": " Bally",
  "7297": " Ball",
  "7298": " Baa",
  "7299": " Along",
  "7300": " Adam",
  "7301": "wise",
  "7302": "using",
  "7303": "uno",
  "7304": "umph",
  "7305": "uggles",
  "7306": "uing",
  "7307": "ude",
  "7308": "pecting",
  "7309": "pit",
  "7310": "osite",
  "7311": "ohny",
  "7312": "obody",
  "7313": "laying",
  "7314": "len",
  "7315": "itude",
  "7316": "ition",
  "7317": "itches",
  "7318": "issa",
  "7319": "ira",
  "7320": "inda",
  "7321": "iliar",
  "7322": "found",
  "7323": "endy",
  "7324": "ching",
  "7325": "ceries",
  "7326": "aren",
  "7327": "ampion",
  "7328": "amiliar",
  "7329": "aled",
  "7330": "achel",
  "7331": "Under",
  "7332": "Tina",
  "7333": "Suzy",
  "7334": "Pat",
  "7335": "Pandy",
  "7336": "Kate",
  "7337": "Joey",
  "7338": "Julie",
  "7339": "Jazz",
  "7340": "Hurry",
  "7341": "Fro",
  "7342": "David",
  "7343": "Dan",
  "7344": "Cindy",
  "7345": "Always",
  "7346": "'.\"",
  "7347": "!”.",
  "7348": " wounds",
  "7349": " wobbled",
  "7350": " wiping",
  "7351": " wealth",
  "7352": " unwra",
  "7353": " unfamiliar",
  "7354": " twists",
  "7355": " twinkled",
  "7356": " twice",
  "7357": " travelled",
  "7358": " tossed",
  "7359": " tires",
  "7360": " temper",
  "7361": " tasting",
  "7362": " talks",
  "7363": " ting",
  "7364": " tin",
  "7365": " tid",
  "7366": " surprising",
  "7367": " surfboard",
  "7368": " stopping",
  "7369": " stolen",
  "7370": " source",
  "7371": " solution",
  "7372": " solving",
  "7373": " soaking",
  "7374": " satisfied",
  "7375": " sill",
  "7376": " rubbing",
  "7377": " reversed",
  "7378": " reminding",
  "7379": " recommended",
  "7380": " rails",
  "7381": " presses",
  "7382": " pleasure",
  "7383": " plucked",
  "7384": " papa",
  "7385": " paddled",
  "7386": " oysters",
  "7387": " overcome",
  "7388": " opposite",
  "7389": " occas",
  "7390": " nearest",
  "7391": " mooed",
  "7392": " miles",
  "7393": " maker",
  "7394": " lifting",
  "7395": " lower",
  "7396": " journeys",
  "7397": " indeed",
  "7398": " insp",
  "7399": " groceries",
  "7400": " form",
  "7401": " fluttered",
  "7402": " flipped",
  "7403": " firmly",
  "7404": " fins",
  "7405": " freed",
  "7406": " everybody",
  "7407": " evil",
  "7408": " duckling",
  "7409": " drivers",
  "7410": " colored",
  "7411": " colder",
  "7412": " cheers",
  "7413": " champion",
  "7414": " caterpillars",
  "7415": " camping",
  "7416": " cott",
  "7417": " bunnies",
  "7418": " buses",
  "7419": " brushing",
  "7420": " bows",
  "7421": " bottles",
  "7422": " behaviour",
  "7423": " bandages",
  "7424": " audience",
  "7425": " amount",
  "7426": " adult",
  "7427": " accomplishment",
  "7428": " abil",
  "7429": " Woolly",
  "7430": " Weapon",
  "7431": " Wake",
  "7432": " Up",
  "7433": " Trixie",
  "7434": " Tia",
  "7435": " Snuggles",
  "7436": " Snap",
  "7437": " Shake",
  "7438": " Oliver",
  "7439": " Near",
  "7440": " Indy",
  "7441": " Gracie",
  "7442": " Gray",
  "7443": " Elle",
  "7444": " Ed",
  "7445": " Bruno",
  "7446": " Bluey",
  "7447": " Bark",
  "7448": "what",
  "7449": "woo",
  "7450": "vers",
  "7451": "urr",
  "7452": "uess",
  "7453": "son",
  "7454": "ptop",
  "7455": "owny",
  "7456": "osen",
  "7457": "ngela",
  "7458": "lsa",
  "7459": "kend",
  "7460": "kelly",
  "7461": "itted",
  "7462": "ighing",
  "7463": "idey",
  "7464": "ici",
  "7465": "ibb",
  "7466": "ibbit",
  "7467": "hopper",
  "7468": "feree",
  "7469": "erm",
  "7470": "cky",
  "7471": "chievous",
  "7472": "cho",
  "7473": "cher",
  "7474": "but",
  "7475": "ashes",
  "7476": "amb",
  "7477": "allowed",
  "7478": "aling",
  "7479": "ably",
  "7480": "Thomas",
  "7481": "Toby",
  "7482": "Ribbit",
  "7483": "People",
  "7484": "Op",
  "7485": "Nick",
  "7486": "Liz",
  "7487": "Josh",
  "7488": "Jessie",
  "7489": "Guess",
  "7490": "Days",
  "7491": "Br",
  "7492": "Bill",
  "7493": "Bang",
  "7494": "Alright",
  "7495": "Afterwards",
  "7496": "Aunt",
  "7497": "Am",
  "7498": "Abby",
  "7499": "?!\"",
  "7500": "!’",
  "7501": " younger",
  "7502": " yelp",
  "7503": " written",
  "7504": " within",
  "7505": " weekend",
  "7506": " wasting",
  "7507": " tubes",
  "7508": " troubles",
  "7509": " trembled",
  "7510": " tops",
  "7511": " thrown",
  "7512": " taped",
  "7513": " tapping",
  "7514": " ty",
  "7515": " swimsuit",
  "7516": " swap",
  "7517": " swallowed",
  "7518": " stroke",
  "7519": " strips",
  "7520": " squeak",
  "7521": " speeding",
  "7522": " spice",
  "7523": " sniffing",
  "7524": " sharks",
  "7525": " seasons",
  "7526": " scored",
  "7527": " robots",
  "7528": " robin",
  "7529": " results",
  "7530": " respected",
  "7531": " repeats",
  "7532": " repeating",
  "7533": " referee",
  "7534": " raccoon",
  "7535": " rays",
  "7536": " punishment",
  "7537": " pouted",
  "7538": " playroom",
  "7539": " pigeons",
  "7540": " peacefully",
  "7541": " parted",
  "7542": " pancakes",
  "7543": " onward",
  "7544": " onions",
  "7545": " newfound",
  "7546": " neatly",
  "7547": " mischievous",
  "7548": " lifts",
  "7549": " laptop",
  "7550": " lump",
  "7551": " inspired",
  "7552": " inches",
  "7553": " healing",
  "7554": " guardian",
  "7555": " grasshopper",
  "7556": " goalie",
  "7557": " gardener",
  "7558": " friendships",
  "7559": " forgetting",
  "7560": " force",
  "7561": " flown",
  "7562": " flock",
  "7563": " flip",
  "7564": " figured",
  "7565": " familiar",
  "7566": " explorer",
  "7567": " encourag",
  "7568": " efforts",
  "7569": " echo",
  "7570": " ease",
  "7571": " dripping",
  "7572": " drifted",
  "7573": " decision",
  "7574": " dump",
  "7575": " corre",
  "7576": " coloured",
  "7577": " cond",
  "7578": " circus",
  "7579": " chosen",
  "7580": " char",
  "7581": " cashier",
  "7582": " borrowed",
  "7583": " belts",
  "7584": " becomes",
  "7585": " banged",
  "7586": " backs",
  "7587": " automobiles",
  "7588": " apologised",
  "7589": " action",
  "7590": " Yet",
  "7591": " Yell",
  "7592": " Wendy",
  "7593": " Welcome",
  "7594": " Two",
  "7595": " Tank",
  "7596": " Show",
  "7597": " Skelly",
  "7598": " Ruff",
  "7599": " Ra",
  "7600": " Poor",
  "7601": " Pin",
  "7602": " Michael",
  "7603": " Ke",
  "7604": " Jackie",
  "7605": " Isabella",
  "7606": " Hook",
  "7607": " Fish",
  "7608": " Excited",
  "7609": " Dusty",
  "7610": " Copper",
  "7611": " Cla",
  "7612": " Cally",
  "7613": " Brad",
  "7614": " Acorn",
  "7615": " ouch",
  "7616": "thur",
  "7617": "the",
  "7618": "sess",
  "7619": "sa",
  "7620": "rier",
  "7621": "rick",
  "7622": "rthur",
  "7623": "rily",
  "7624": "orky",
  "7625": "opes",
  "7626": "ollen",
  "7627": "mates",
  "7628": "match",
  "7629": "ji",
  "7630": "imm",
  "7631": "igning",
  "7632": "hog",
  "7633": "hive",
  "7634": "form",
  "7635": "espite",
  "7636": "ening",
  "7637": "cope",
  "7638": "atur",
  "7639": "armer",
  "7640": "antern",
  "7641": "acles",
  "7642": "aver",
  "7643": "Zara",
  "7644": "Try",
  "7645": "Soup",
  "7646": "Like",
  "7647": "Jon",
  "7648": "Jamie",
  "7649": "Hop",
  "7650": "Coco",
  "7651": "Bessie",
  "7652": "Bee",
  "7653": "Barry",
  "7654": " wrapping",
  "7655": " wrink",
  "7656": " winners",
  "7657": " willing",
  "7658": " whimp",
  "7659": " weighing",
  "7660": " weeds",
  "7661": " waking",
  "7662": " tot",
  "7663": " tiptoed",
  "7664": " thorns",
  "7665": " teapot",
  "7666": " swollen",
  "7667": " stitches",
  "7668": " spoonful",
  "7669": " spills",
  "7670": " spices",
  "7671": " sniffs",
  "7672": " smelling",
  "7673": " smashed",
  "7674": " shaped",
  "7675": " shady",
  "7676": " sensation",
  "7677": " secure",
  "7678": " scen",
  "7679": " sandpit",
  "7680": " rect",
  "7681": " rats",
  "7682": " rust",
  "7683": " queens",
  "7684": " purpose",
  "7685": " purrs",
  "7686": " pokes",
  "7687": " playhouse",
  "7688": " plot",
  "7689": " patches",
  "7690": " packages",
  "7691": " nuzzled",
  "7692": " needles",
  "7693": " napped",
  "7694": " moonlight",
  "7695": " miller",
  "7696": " messes",
  "7697": " lowered",
  "7698": " lizards",
  "7699": " librarian",
  "7700": " languages",
  "7701": " lent",
  "7702": " lantern",
  "7703": " lamb",
  "7704": " knots",
  "7705": " joyful",
  "7706": " invitations",
  "7707": " hedgehog",
  "7708": " height",
  "7709": " haircuts",
  "7710": " hoo",
  "7711": " guessing",
  "7712": " groaned",
  "7713": " grabbing",
  "7714": " fooled",
  "7715": " enthusiasm",
  "7716": " dresser",
  "7717": " drawn",
  "7718": " disobey",
  "7719": " designs",
  "7720": " crossing",
  "7721": " cracker",
  "7722": " craft",
  "7723": " connected",
  "7724": " cons",
  "7725": " cosy",
  "7726": " coach",
  "7727": " cleaner",
  "7728": " cautiously",
  "7729": " caw",
  "7730": " bruises",
  "7731": " breathing",
  "7732": " bothering",
  "7733": " bothered",
  "7734": " bellies",
  "7735": " behavior",
  "7736": " beginning",
  "7737": " beehive",
  "7738": " bully",
  "7739": " arrives",
  "7740": " aim",
  "7741": " Yellow",
  "7742": " Woof",
  "7743": " Willy",
  "7744": " Time",
  "7745": " Steppy",
  "7746": " Stret",
  "7747": " Smoke",
  "7748": " Ria",
  "7749": " Puppy",
  "7750": " Purr",
  "7751": " Pizza",
  "7752": " Pill",
  "7753": " Mamma",
  "7754": " Luckily",
  "7755": " Lion",
  "7756": " Kayla",
  "7757": " Jay",
  "7758": " Isn",
  "7759": " Forky",
  "7760": " Claire",
  "7761": " Cloud",
  "7762": " Chr",
  "7763": " Cha",
  "7764": " CD",
  "7765": " Bloom",
  "7766": " Bi",
  "7767": " Although",
  "7768": " App",
  "7769": " Abbie",
  "7770": " 2",
  "7771": "zoom",
  "7772": "zi",
  "7773": "yes",
  "7774": "ushroom",
  "7775": "urrender",
  "7776": "ummies",
  "7777": "ulf",
  "7778": "that",
  "7779": "tock",
  "7780": "seed",
  "7781": "river",
  "7782": "rie",
  "7783": "rig",
  "7784": "ppies",
  "7785": "orter",
  "7786": "orking",
  "7787": "onies",
  "7788": "omb",
  "7789": "ley",
  "7790": "ldy",
  "7791": "izon",
  "7792": "ivity",
  "7793": "initely",
  "7794": "immer",
  "7795": "illed",
  "7796": "ighty",
  "7797": "iddy",
  "7798": "iving",
  "7799": "iky",
  "7800": "ibbles",
  "7801": "fus",
  "7802": "ertain",
  "7803": "eling",
  "7804": "ears",
  "7805": "ezi",
  "7806": "byes",
  "7807": "beep",
  "7808": "ba",
  "7809": "aterpillar",
  "7810": "armen",
  "7811": "annah",
  "7812": "anet",
  "7813": "anced",
  "7814": "agic",
  "7815": "afy",
  "7816": "ailey",
  "7817": "Zip",
  "7818": "Which",
  "7819": "Sharing",
  "7820": "Ray",
  "7821": "Pip",
  "7822": "Pinky",
  "7823": "Marie",
  "7824": "Freddy",
  "7825": "By",
  "7826": "Brian",
  "7827": "Bounce",
  "7828": " worrying",
  "7829": " wobble",
  "7830": " wisely",
  "7831": " whoosh",
  "7832": " wept",
  "7833": " waterfall",
  "7834": " waded",
  "7835": " wider",
  "7836": " uniforms",
  "7837": " tying",
  "7838": " tummies",
  "7839": " tumbled",
  "7840": " sweaters",
  "7841": " sweep",
  "7842": " suffering",
  "7843": " streamers",
  "7844": " storekeeper",
  "7845": " stomp",
  "7846": " stamped",
  "7847": " squaw",
  "7848": " springing",
  "7849": " sniffled",
  "7850": " slapping",
  "7851": " shops",
  "7852": " serv",
  "7853": " screws",
  "7854": " scratching",
  "7855": " scurry",
  "7856": " sav",
  "7857": " respond",
  "7858": " relaxing",
  "7859": " rectangle",
  "7860": " realizing",
  "7861": " probably",
  "7862": " possess",
  "7863": " pinching",
  "7864": " peeled",
  "7865": " ponies",
  "7866": " noticing",
  "7867": " motorcycles",
  "7868": " months",
  "7869": " momma",
  "7870": " moons",
  "7871": " minding",
  "7872": " mints",
  "7873": " meaning",
  "7874": " meals",
  "7875": " massages",
  "7876": " marker",
  "7877": " manners",
  "7878": " larger",
  "7879": " labels",
  "7880": " laces",
  "7881": " kings",
  "7882": " jobs",
  "7883": " instruments",
  "7884": " insisting",
  "7885": " inj",
  "7886": " horizon",
  "7887": " handsome",
  "7888": " goodbyes",
  "7889": " glared",
  "7890": " giggles",
  "7891": " gems",
  "7892": " gasps",
  "7893": " gest",
  "7894": " focus",
  "7895": " films",
  "7896": " fills",
  "7897": " exercises",
  "7898": " encouragement",
  "7899": " encouraging",
  "7900": " encount",
  "7901": " edges",
  "7902": " doorway",
  "7903": " displayed",
  "7904": " discussed",
  "7905": " destroying",
  "7906": " definitely",
  "7907": " deed",
  "7908": " dances",
  "7909": " dip",
  "7910": " daring",
  "7911": " creativity",
  "7912": " crackers",
  "7913": " cowb",
  "7914": " correctly",
  "7915": " convin",
  "7916": " clues",
  "7917": " clicked",
  "7918": " cheaper",
  "7919": " changes",
  "7920": " centre",
  "7921": " center",
  "7922": " cares",
  "7923": " coug",
  "7924": " brightest",
  "7925": " blast",
  "7926": " birdseed",
  "7927": " belongings",
  "7928": " beeped",
  "7929": " bomb",
  "7930": " bitten",
  "7931": " aeroplanes",
  "7932": " admiration",
  "7933": " activity",
  "7934": " University",
  "7935": " Tree",
  "7936": " Tiger",
  "7937": " Tidy",
  "7938": " Take",
  "7939": " Spoon",
  "7940": " Spidey",
  "7941": " Rufus",
  "7942": " Rich",
  "7943": " Rain",
  "7944": " Rachel",
  "7945": " Okay",
  "7946": " Oink",
  "7947": " Nobody",
  "7948": " Nibbles",
  "7949": " Mixy",
  "7950": " Melissa",
  "7951": " Meowny",
  "7952": " Mushroom",
  "7953": " Mop",
  "7954": " Mighty",
  "7955": " Man",
  "7956": " Louise",
  "7957": " Leafy",
  "7958": " Jody",
  "7959": " Jump",
  "7960": " Jem",
  "7961": " Granny",
  "7962": " Frankie",
  "7963": " Flora",
  "7964": " Flame",
  "7965": " Fire",
  "7966": " Farmer",
  "7967": " Elsa",
  "7968": " Doll",
  "7969": " Daniel",
  "7970": " Croco",
  "7971": " Crabby",
  "7972": " Cocoa",
  "7973": " Climb",
  "7974": " Chirp",
  "7975": " Comet",
  "7976": " Books",
  "7977": " Bumpy",
  "7978": " Angela",
  "7979": " ill",
  "7980": "years",
  "7981": "yl",
  "7982": "while",
  "7983": "ushing",
  "7984": "urple",
  "7985": "umphrey",
  "7986": "ums",
  "7987": "udrey",
  "7988": "stalk",
  "7989": "ssy",
  "7990": "roken",
  "7991": "rigued",
  "7992": "retty",
  "7993": "rab",
  "7994": "ounced",
  "7995": "ophia",
  "7996": "ongr",
  "7997": "onse",
  "7998": "onna",
  "7999": "omp",
  "8000": "ntil",
  "8001": "mbers",
  "8002": "keepers",
  "8003": "izziness",
  "8004": "iter",
  "8005": "irls",
  "8006": "inald",
  "8007": "icip",
  "8008": "ibby",
  "8009": "hings",
  "8010": "guess",
  "8011": "exi",
  "8012": "erms",
  "8013": "erk",
  "8014": "erious",
  "8015": "ering",
  "8016": "ending",
  "8017": "eeling",
  "8018": "driver",
  "8019": "ctar",
  "8020": "cused",
  "8021": "boat",
  "8022": "broken",
  "8023": "bi",
  "8024": "bage",
  "8025": "aya",
  "8026": "aturday",
  "8027": "atty",
  "8028": "asty",
  "8029": "arty",
  "8030": "apers",
  "8031": "apaya",
  "8032": "antha",
  "8033": "anwhile",
  "8034": "acing",
  "8035": "ais",
  "8036": "act",
  "8037": "Want",
  "8038": "Tilly",
  "8039": "Slow",
  "8040": "Rock",
  "8041": "RR",
  "8042": "Quick",
  "8043": "Pr",
  "8044": "Papa",
  "8045": "Only",
  "8046": "Olive",
  "8047": "Nothing",
  "8048": "Jolly",
  "8049": "Instead",
  "8050": "However",
  "8051": "Frank",
  "8052": "Dear",
  "8053": "Deal",
  "8054": "Birdy",
  "8055": "Behind",
  "8056": "Bop",
  "8057": "Albert",
  "8058": "====",
  "8059": ",'",
  "8060": " wrinkled",
  "8061": " writer",
  "8062": " whales",
  "8063": " wig",
  "8064": " visits",
  "8065": " visitor",
  "8066": " vests",
  "8067": " vehicles",
  "8068": " twinkle",
  "8069": " travelling",
  "8070": " toward",
  "8071": " toad",
  "8072": " throughout",
  "8073": " thoughts",
  "8074": " tapped",
  "8075": " tuck",
  "8076": " ties",
  "8077": " streets",
  "8078": " stirs",
  "8079": " sternly",
  "8080": " stun",
  "8081": " stings",
  "8082": " stall",
  "8083": " stacked",
  "8084": " sprinkled",
  "8085": " snorted",
  "8086": " simply",
  "8087": " shall",
  "8088": " sets",
  "8089": " seagulls",
  "8090": " seals",
  "8091": " scurrying",
  "8092": " screwdriver",
  "8093": " sadder",
  "8094": " runner",
  "8095": " rods",
  "8096": " risks",
  "8097": " returning",
  "8098": " response",
  "8099": " rewards",
  "8100": " reapp",
  "8101": " races",
  "8102": " rotten",
  "8103": " presented",
  "8104": " preparing",
  "8105": " pours",
  "8106": " politely",
  "8107": " plug",
  "8108": " pens",
  "8109": " pennies",
  "8110": " pays",
  "8111": " panicked",
  "8112": " puff",
  "8113": " owners",
  "8114": " outfits",
  "8115": " observing",
  "8116": " nectar",
  "8117": " nur",
  "8118": " nasty",
  "8119": " mesmerized",
  "8120": " members",
  "8121": " mayor",
  "8122": " magician",
  "8123": " mitt",
  "8124": " hissing",
  "8125": " hesitant",
  "8126": " hamm",
  "8127": " greeted",
  "8128": " grassy",
  "8129": " glitt",
  "8130": " genie",
  "8131": " garbage",
  "8132": " gonna",
  "8133": " floats",
  "8134": " flaps",
  "8135": " fishermen",
  "8136": " farmers",
  "8137": " faded",
  "8138": " driveway",
  "8139": " differences",
  "8140": " demanding",
  "8141": " delayed",
  "8142": " dangers",
  "8143": " damaged",
  "8144": " dizziness",
  "8145": " cutter",
  "8146": " creations",
  "8147": " cops",
  "8148": " consider",
  "8149": " concer",
  "8150": " commun",
  "8151": " common",
  "8152": " cleared",
  "8153": " classmates",
  "8154": " clue",
  "8155": " characters",
  "8156": " cafe",
  "8157": " burst",
  "8158": " budge",
  "8159": " bubb",
  "8160": " bravest",
  "8161": " braver",
  "8162": " bol",
  "8163": " boards",
  "8164": " blocked",
  "8165": " bits",
  "8166": " beloved",
  "8167": " beanstalk",
  "8168": " beaver",
  "8169": " beast",
  "8170": " bathed",
  "8171": " aware",
  "8172": " aren",
  "8173": " anticip",
  "8174": " annoying",
  "8175": " allowing",
  "8176": " affect",
  "8177": " acts",
  "8178": " ais",
  "8179": " Yog",
  "8180": " Wonder",
  "8181": " Uni",
  "8182": " Until",
  "8183": " Toy",
  "8184": " Tato",
  "8185": " Swing",
  "8186": " Stan",
  "8187": " Spinny",
  "8188": " Slinky",
  "8189": " Shampoo",
  "8190": " Seat",
  "8191": " Sk",
  "8192": " Saturday",
  "8193": " Reginald",
  "8194": " Roy",
  "8195": " Ralph",
  "8196": " Pl",
  "8197": " Ouch",
  "8198": " Old",
  "8199": " Number",
  "8200": " Navy",
  "8201": " Mic",
  "8202": " Leopard",
  "8203": " Luc",
  "8204": " Lauren",
  "8205": " Kelly",
  "8206": " Judge",
  "8207": " Joan",
  "8208": " Giant",
  "8209": " Flexible",
  "8210": " Flappy",
  "8211": " Flap",
  "8212": " Eddie",
  "8213": " Cross",
  "8214": " Cici",
  "8215": " Bucky",
  "8216": " Bad",
  "8217": " Apple",
  "8218": " Arm",
  "8219": " Ant",
  "8220": "…",
  "8221": "ylv",
  "8222": "ylvia",
  "8223": "water",
  "8224": "veral",
  "8225": "upin",
  "8226": "uggy",
  "8227": "uses",
  "8228": "sol",
  "8229": "sn",
  "8230": "rave",
  "8231": "rinky",
  "8232": "quet",
  "8233": "parent",
  "8234": "ouquet",
  "8235": "oochy",
  "8236": "olo",
  "8237": "ments",
  "8238": "lect",
  "8239": "laire",
  "8240": "line",
  "8241": "jack",
  "8242": "izzie",
  "8243": "ivia",
  "8244": "ironment",
  "8245": "immering",
  "8246": "illip",
  "8247": "ift",
  "8248": "iece",
  "8249": "ics",
  "8250": "ib",
  "8251": "hole",
  "8252": "giving",
  "8253": "esses",
  "8254": "erts",
  "8255": "elope",
  "8256": "elie",
  "8257": "date",
  "8258": "creams",
  "8259": "cloud",
  "8260": "ckless",
  "8261": "cted",
  "8262": "cent",
  "8263": "bird",
  "8264": "bed",
  "8265": "athan",
  "8266": "atitude",
  "8267": "asha",
  "8268": "anga",
  "8269": "acle",
  "8270": "acher",
  "8271": "aven",
  "8272": "Willow",
  "8273": "Uncle",
  "8274": "Trust",
  "8275": "Tw",
  "8276": "Sof",
  "8277": "Should",
  "8278": "Sadie",
  "8279": "Ralph",
  "8280": "Promise",
  "8281": "Mon",
  "8282": "Leave",
  "8283": "King",
  "8284": "Johny",
  "8285": "Isabella",
  "8286": "Hmm",
  "8287": "Goodnight",
  "8288": "Does",
  "8289": "Claire",
  "8290": "Both",
  "8291": "Binky",
  "8292": "Beth",
  "8293": "Ava",
  "8294": "Adam",
  "8295": " yelped",
  "8296": " wiser",
  "8297": " wadd",
  "8298": " vibr",
  "8299": " unable",
  "8300": " traveling",
  "8301": " trading",
  "8302": " theat",
  "8303": " terrified",
  "8304": " temperature",
  "8305": " teachers",
  "8306": " tale",
  "8307": " symbols",
  "8308": " syrup",
  "8309": " sweetest",
  "8310": " swallow",
  "8311": " supporting",
  "8312": " sunflowers",
  "8313": " stores",
  "8314": " stomachs",
  "8315": " statues",
  "8316": " squealed",
  "8317": " sprays",
  "8318": " snug",
  "8319": " snar",
  "8320": " slithered",
  "8321": " slips",
  "8322": " skate",
  "8323": " shines",
  "8324": " shares",
  "8325": " shorter",
  "8326": " shh",
  "8327": " several",
  "8328": " scolds",
  "8329": " scent",
  "8330": " sailors",
  "8331": " sailboat",
  "8332": " sou",
  "8333": " rustling",
  "8334": " roars",
  "8335": " rivers",
  "8336": " realizes",
  "8337": " reckless",
  "8338": " reass",
  "8339": " raking",
  "8340": " rack",
  "8341": " quacking",
  "8342": " puzzled",
  "8343": " postc",
  "8344": " plugged",
  "8345": " pills",
  "8346": " permitted",
  "8347": " performer",
  "8348": " performance",
  "8349": " pedaled",
  "8350": " packet",
  "8351": " pouch",
  "8352": " pant",
  "8353": " opinions",
  "8354": " offering",
  "8355": " newspapers",
  "8356": " nervously",
  "8357": " mushy",
  "8358": " munching",
  "8359": " meowing",
  "8360": " materials",
  "8361": " mailing",
  "8362": " magazines",
  "8363": " lungs",
  "8364": " lunchtime",
  "8365": " longest",
  "8366": " lun",
  "8367": " jing",
  "8368": " invites",
  "8369": " intrigued",
  "8370": " hotter",
  "8371": " hisses",
  "8372": " hesitation",
  "8373": " guards",
  "8374": " grandparent",
  "8375": " gratitude",
  "8376": " glows",
  "8377": " generosity",
  "8378": " gap",
  "8379": " funn",
  "8380": " forgiveness",
  "8381": " forgives",
  "8382": " focused",
  "8383": " flavors",
  "8384": " fist",
  "8385": " exploration",
  "8386": " express",
  "8387": " except",
  "8388": " envelopes",
  "8389": " environment",
  "8390": " encountered",
  "8391": " earned",
  "8392": " eld",
  "8393": " dressing",
  "8394": " dreamt",
  "8395": " dollars",
  "8396": " disturbing",
  "8397": " disagre",
  "8398": " digs",
  "8399": " desserts",
  "8400": " despite",
  "8401": " defe",
  "8402": " cupcakes",
  "8403": " cuddles",
  "8404": " crowd",
  "8405": " croaked",
  "8406": " corns",
  "8407": " convinced",
  "8408": " comforting",
  "8409": " collap",
  "8410": " cloudy",
  "8411": " cloths",
  "8412": " closing",
  "8413": " clerk",
  "8414": " choosing",
  "8415": " chewy",
  "8416": " cheat",
  "8417": " certain",
  "8418": " bud",
  "8419": " birdhouse",
  "8420": " beaming",
  "8421": " batt",
  "8422": " baskets",
  "8423": " bouquet",
  "8424": " bound",
  "8425": " artist",
  "8426": " appreciation",
  "8427": " anticipation",
  "8428": " amused",
  "8429": " Zoey",
  "8430": " William",
  "8431": " Whip",
  "8432": " Wait",
  "8433": " Violet",
  "8434": " Tweety",
  "8435": " Thermometer",
  "8436": " Tick",
  "8437": " Tibby",
  "8438": " Shiny",
  "8439": " Robot",
  "8440": " Ready",
  "8441": " Razor",
  "8442": " Quack",
  "8443": " Penelope",
  "8444": " Peep",
  "8445": " Pop",
  "8446": " Pol",
  "8447": " Playing",
  "8448": " Pippy",
  "8449": " Only",
  "8450": " Op",
  "8451": " Oh",
  "8452": " Nate",
  "8453": " Marsh",
  "8454": " Moppy",
  "8455": " Mina",
  "8456": " Milo",
  "8457": " Laura",
  "8458": " Lexi",
  "8459": " Land",
  "8460": " June",
  "8461": " Hatty",
  "8462": " Fun",
  "8463": " Fix",
  "8464": " Everybody",
  "8465": " Dust",
  "8466": " Despite",
  "8467": " Chug",
  "8468": " Chuck",
  "8469": " Chip",
  "8470": " Cle",
  "8471": " Caterpillar",
  "8472": " Brush",
  "8473": " Bobba",
  "8474": " Brave",
  "8475": " Auntie",
  "8476": " Amanda",
  "8477": " Audrey",
  "8478": " Aly",
  "8479": " Abi",
  "8480": " ''",
  "8481": " 5",
  "8482": "yan",
  "8483": "weed",
  "8484": "ullaby",
  "8485": "ula",
  "8486": "ugging",
  "8487": "uise",
  "8488": "stick",
  "8489": "ssa",
  "8490": "snap",
  "8491": "sers",
  "8492": "rya",
  "8493": "riendship",
  "8494": "pop",
  "8495": "ots",
  "8496": "otato",
  "8497": "ortunately",
  "8498": "ordan",
  "8499": "ookie",
  "8500": "ongrat",
  "8501": "ongratul",
  "8502": "onst",
  "8503": "oint",
  "8504": "oever",
  "8505": "occo",
  "8506": "off",
  "8507": "ming",
  "8508": "mate",
  "8509": "lor",
  "8510": "ita",
  "8511": "ircle",
  "8512": "ipes",
  "8513": "inted",
  "8514": "ildren",
  "8515": "ige",
  "8516": "ienced",
  "8517": "idence",
  "8518": "iden",
  "8519": "icent",
  "8520": "ivery",
  "8521": "fficer",
  "8522": "fl",
  "8523": "fire",
  "8524": "ets",
  "8525": "eresa",
  "8526": "emies",
  "8527": "elina",
  "8528": "earl",
  "8529": "cri",
  "8530": "bbers",
  "8531": "bell",
  "8532": "bank",
  "8533": "azy",
  "8534": "att",
  "8535": "assport",
  "8536": "asers",
  "8537": "armony",
  "8538": "arlings",
  "8539": "angles",
  "8540": "ampered",
  "8541": "amedics",
  "8542": "aisies",
  "8543": "agnet",
  "8544": "abelle",
  "8545": "Zoe",
  "8546": "Wake",
  "8547": "Suzie",
  "8548": "Someone",
  "8549": "Sofia",
  "8550": "Snow",
  "8551": "Sun",
  "8552": "Squeaky",
  "8553": "Splash",
  "8554": "Speedy",
  "8555": "Robert",
  "8556": "Robby",
  "8557": "Mother",
  "8558": "Mel",
  "8559": "Kiki",
  "8560": "Kids",
  "8561": "Karen",
  "8562": "Jess",
  "8563": "Jacob",
  "8564": "Ice",
  "8565": "Hoppy",
  "8566": "Ho",
  "8567": "Got",
  "8568": "Gogo",
  "8569": "Gigi",
  "8570": "Froggy",
  "8571": "Finny",
  "8572": "Eat",
  "8573": "Danger",
  "8574": "Carl",
  "8575": "Anne",
  "8576": "Abigail",
  "8577": " —",
  "8578": " winks",
  "8579": " whispering",
  "8580": " whimpered",
  "8581": " whiskers",
  "8582": " whir",
  "8583": " whine",
  "8584": " welcoming",
  "8585": " washes",
  "8586": " warmly",
  "8587": " vibrant",
  "8588": " unwrap",
  "8589": " understands",
  "8590": " undone",
  "8591": " type",
  "8592": " tunes",
  "8593": " triangles",
  "8594": " travels",
  "8595": " towns",
  "8596": " toolbox",
  "8597": " tidied",
  "8598": " thundercloud",
  "8599": " theatre",
  "8600": " tentacles",
  "8601": " teams",
  "8602": " swimsuits",
  "8603": " suns",
  "8604": " suits",
  "8605": " suitcase",
  "8606": " styles",
  "8607": " strum",
  "8608": " storms",
  "8609": " steering",
  "8610": " spoiling",
  "8611": " spy",
  "8612": " soot",
  "8613": " snowfl",
  "8614": " smoother",
  "8615": " smartest",
  "8616": " sleds",
  "8617": " situations",
  "8618": " sirens",
  "8619": " shrank",
  "8620": " shinier",
  "8621": " seconds",
  "8622": " seaweed",
  "8623": " scraped",
  "8624": " scampered",
  "8625": " salon",
  "8626": " robe",
  "8627": " robbers",
  "8628": " riverbank",
  "8629": " riches",
  "8630": " resisted",
  "8631": " repairs",
  "8632": " refreshing",
  "8633": " realise",
  "8634": " reun",
  "8635": " rely",
  "8636": " rushing",
  "8637": " quarreled",
  "8638": " pupils",
  "8639": " providing",
  "8640": " pressing",
  "8641": " practised",
  "8642": " prove",
  "8643": " prank",
  "8644": " playdate",
  "8645": " plans",
  "8646": " pecks",
  "8647": " passen",
  "8648": " paramedics",
  "8649": " puck",
  "8650": " pound",
  "8651": " owls",
  "8652": " obeyed",
  "8653": " odd",
  "8654": " nibbled",
  "8655": " niece",
  "8656": " mugs",
  "8657": " mixture",
  "8658": " messed",
  "8659": " medals",
  "8660": " mer",
  "8661": " lumberjack",
  "8662": " luckily",
  "8663": " locks",
  "8664": " lectures",
  "8665": " lullaby",
  "8666": " joyfully",
  "8667": " jets",
  "8668": " injured",
  "8669": " hunters",
  "8670": " hiss",
  "8671": " hippos",
  "8672": " heron",
  "8673": " helicopters",
  "8674": " heartbroken",
  "8675": " heaven",
  "8676": " hatch",
  "8677": " habit",
  "8678": " guarding",
  "8679": " guided",
  "8680": " guesses",
  "8681": " grumbled",
  "8682": " glanced",
  "8683": " gesture",
  "8684": " glee",
  "8685": " foggy",
  "8686": " flips",
  "8687": " fixer",
  "8688": " fires",
  "8689": " finishing",
  "8690": " final",
  "8691": " facts",
  "8692": " faith",
  "8693": " failed",
  "8694": " fulf",
  "8695": " explains",
  "8696": " explo",
  "8697": " experienced",
  "8698": " expecting",
  "8699": " enemies",
  "8700": " echoed",
  "8701": " doorbell",
  "8702": " disobeyed",
  "8703": " disagreement",
  "8704": " digger",
  "8705": " differently",
  "8706": " designing",
  "8707": " demonst",
  "8708": " delaying",
  "8709": " delivery",
  "8710": " daddies",
  "8711": " ding",
  "8712": " darlings",
  "8713": " daisies",
  "8714": " crowns",
  "8715": " crocodiles",
  "8716": " crickets",
  "8717": " creamy",
  "8718": " crashing",
  "8719": " covering",
  "8720": " cousins",
  "8721": " cottage",
  "8722": " conduct",
  "8723": " concerned",
  "8724": " compete",
  "8725": " coloring",
  "8726": " clut",
  "8727": " chews",
  "8728": " cells",
  "8729": " carve",
  "8730": " cables",
  "8731": " causing",
  "8732": " bulbs",
  "8733": " bolt",
  "8734": " blooms",
  "8735": " blur",
  "8736": " blades",
  "8737": " blade",
  "8738": " bendy",
  "8739": " bends",
  "8740": " bless",
  "8741": " attend",
  "8742": " arr",
  "8743": " answering",
  "8744": " announced",
  "8745": " angrily",
  "8746": " angrier",
  "8747": " alley",
  "8748": " although",
  "8749": " aisle",
  "8750": " achieved",
  "8751": " ability",
  "8752": " Whoever",
  "8753": " Wise",
  "8754": " Well",
  "8755": " War",
  "8756": " Volly",
  "8757": " Trucky",
  "8758": " Todd",
  "8759": " Ty",
  "8760": " Tock",
  "8761": " Tizzy",
  "8762": " Teresa",
  "8763": " Sunshine",
  "8764": " Stealing",
  "8765": " Square",
  "8766": " Spicy",
  "8767": " Space",
  "8768": " Snowball",
  "8769": " Skip",
  "8770": " Summer",
  "8771": " Since",
  "8772": " Rude",
  "8773": " Roll",
  "8774": " Ryan",
  "8775": " Rita",
  "8776": " Ricky",
  "8777": " Rh",
  "8778": " Print",
  "8779": " Phillip",
  "8780": " Purple",
  "8781": " Point",
  "8782": " Pet",
  "8783": " Passport",
  "8784": " Party",
  "8785": " Papaya",
  "8786": " Oxygen",
  "8787": " Officer",
  "8788": " Mixie",
  "8789": " Melon",
  "8790": " Maya",
  "8791": " Muggy",
  "8792": " Ms",
  "8793": " More",
  "8794": " Make",
  "8795": " Maddie",
  "8796": " Laurie",
  "8797": " Lots",
  "8798": " Lazy",
  "8799": " Kanga",
  "8800": " Janey",
  "8801": " Jumpy",
  "8802": " Ice",
  "8803": " Hello",
  "8804": " Grand",
  "8805": " Flick",
  "8806": " Friendship",
  "8807": " Find",
  "8808": " Fair",
  "8809": " Dull",
  "8810": " Dot",
  "8811": " Dezi",
  "8812": " Clouds",
  "8813": " Cara",
  "8814": " Cable",
  "8815": " Bussy",
  "8816": " Booker",
  "8817": " Bobbie",
  "8818": " Birds",
  "8819": " Bibo",
  "8820": " Benji",
  "8821": " Beepy",
  "8822": " Band",
  "8823": " Albert",
  "8824": " Arya",
  "8825": " Ac",
  "8826": "”,",
  "8827": "wen",
  "8828": "vered",
  "8829": "venir",
  "8830": "undred",
  "8831": "unched",
  "8832": "ugar",
  "8833": "ubber",
  "8834": "uild",
  "8835": "uard",
  "8836": "uardo",
  "8837": "tha",
  "8838": "sel",
  "8839": "she",
  "8840": "sack",
  "8841": "roccoli",
  "8842": "rnie",
  "8843": "rints",
  "8844": "rest",
  "8845": "repe",
  "8846": "repeat",
  "8847": "rees",
  "8848": "rough",
  "8849": "rons",
  "8850": "rings",
  "8851": "rina",
  "8852": "ration",
  "8853": "quar",
  "8854": "quarium",
  "8855": "peed",
  "8856": "prints",
  "8857": "per",
  "8858": "ouraged",
  "8859": "orence",
  "8860": "opy",
  "8861": "ooks",
  "8862": "onnie",
  "8863": "okay",
  "8864": "ndles",
  "8865": "nor",
  "8866": "ne",
  "8867": "mel",
  "8868": "melon",
  "8869": "mar",
  "8870": "jamin",
  "8871": "ives",
  "8872": "ippers",
  "8873": "incy",
  "8874": "imals",
  "8875": "iggled",
  "8876": "igger",
  "8877": "ienna",
  "8878": "ieves",
  "8879": "icola",
  "8880": "icious",
  "8881": "icate",
  "8882": "ibil",
  "8883": "guard",
  "8884": "exit",
  "8885": "etchup",
  "8886": "essy",
  "8887": "ellyfish",
  "8888": "elieve",
  "8889": "elix",
  "8890": "eading",
  "8891": "even",
  "8892": "ese",
  "8893": "doo",
  "8894": "dog",
  "8895": "dmother",
  "8896": "dinky",
  "8897": "dges",
  "8898": "dad",
  "8899": "ctopuses",
  "8900": "couraged",
  "8901": "can",
  "8902": "cake",
  "8903": "balls",
  "8904": "aty",
  "8905": "ashing",
  "8906": "artha",
  "8907": "artled",
  "8908": "ansform",
  "8909": "andel",
  "8910": "amps",
  "8911": "ali",
  "8912": "ager",
  "8913": "acy",
  "8914": "accoon",
  "8915": "abrina",
  "8916": "aige",
  "8917": "Wiggly",
  "8918": "Two",
  "8919": "Theo",
  "8920": "Ted",
  "8921": "Tara",
  "8922": "Still",
  "8923": "Snap",
  "8924": "Shrinky",
  "8925": "Share",
  "8926": "Sadly",
  "8927": "Surrender",
  "8928": "Rabbit",
  "8929": "Polly",
  "8930": "Outside",
  "8931": "Open",
  "8932": "Nice",
  "8933": "Near",
  "8934": "Meanwhile",
  "8935": "Maria",
  "8936": "Martha",
  "8937": "Maddie",
  "8938": "Kelly",
  "8939": "Jackie",
  "8940": "Joy",
  "8941": "Jay",
  "8942": "Isn",
  "8943": "Hope",
  "8944": "Friends",
  "8945": "Fish",
  "8946": "En",
  "8947": "Duck",
  "8948": "Chloe",
  "8949": "Curious",
  "8950": "Caw",
  "8951": "Catch",
  "8952": "Bug",
  "8953": "Bo",
  "8954": "Belle",
  "8955": "Arthur",
  "8956": "Any",
  "8957": "',",
  "8958": " zookeepers",
  "8959": " wrapper",
  "8960": " wildf",
  "8961": " weighs",
  "8962": " webs",
  "8963": " weaker",
  "8964": " watermelon",
  "8965": " warri",
  "8966": " waistband",
  "8967": " untw",
  "8968": " untangle",
  "8969": " treated",
  "8970": " treas",
  "8971": " transform",
  "8972": " toucan",
  "8973": " tingling",
  "8974": " thanking",
  "8975": " thieves",
  "8976": " testing",
  "8977": " tempted",
  "8978": " switches",
  "8979": " swaying",
  "8980": " strolled",
  "8981": " stretches",
  "8982": " stomped",
  "8983": " stepping",
  "8984": " stains",
  "8985": " squawked",
  "8986": " spilling",
  "8987": " spies",
  "8988": " sped",
  "8989": " souvenir",
  "8990": " snowflakes",
  "8991": " snarled",
  "8992": " snapping",
  "8993": " slug",
  "8994": " skateboard",
  "8995": " silent",
  "8996": " shooed",
  "8997": " seeking",
  "8998": " scenery",
  "8999": " scre",
  "9000": " savanna",
  "9001": " reunited",
  "9002": " recipe",
  "9003": " ruff",
  "9004": " rout",
  "9005": " rises",
  "9006": " rider",
  "9007": " quilt",
  "9008": " protects",
  "9009": " posts",
  "9010": " poppies",
  "9011": " plumber",
  "9012": " peels",
  "9013": " peeks",
  "9014": " pearls",
  "9015": " particularly",
  "9016": " poop",
  "9017": " passes",
  "9018": " otherwise",
  "9019": " ostriches",
  "9020": " opt",
  "9021": " online",
  "9022": " occasions",
  "9023": " occasion",
  "9024": " obst",
  "9025": " novels",
  "9026": " nightfall",
  "9027": " neighbours",
  "9028": " minds",
  "9029": " mesmerised",
  "9030": " melts",
  "9031": " meatballs",
  "9032": " mattresses",
  "9033": " mur",
  "9034": " moo",
  "9035": " mate",
  "9036": " lifeguard",
  "9037": " lessons",
  "9038": " learner",
  "9039": " level",
  "9040": " lamps",
  "9041": " laz",
  "9042": " lur",
  "9043": " limp",
  "9044": " ketchup",
  "9045": " introducing",
  "9046": " intelligence",
  "9047": " intently",
  "9048": " instrument",
  "9049": " humming",
  "9050": " host",
  "9051": " heights",
  "9052": " hearing",
  "9053": " handing",
  "9054": " hamster",
  "9055": " haw",
  "9056": " huff",
  "9057": " hoof",
  "9058": " godmother",
  "9059": " giants",
  "9060": " gears",
  "9061": " germs",
  "9062": " freezing",
  "9063": " freedom",
  "9064": " forests",
  "9065": " forts",
  "9066": " footprints",
  "9067": " fluttering",
  "9068": " firefighter",
  "9069": " fences",
  "9070": " fet",
  "9071": " experiences",
  "9072": " examining",
  "9073": " exch",
  "9074": " erasers",
  "9075": " entering",
  "9076": " enjoyable",
  "9077": " endings",
  "9078": " emerged",
  "9079": " embra",
  "9080": " earrings",
  "9081": " dumped",
  "9082": " drip",
  "9083": " drift",
  "9084": " dodging",
  "9085": " dodged",
  "9086": " dives",
  "9087": " disguise",
  "9088": " disappears",
  "9089": " demonstrated",
  "9090": " dips",
  "9091": " det",
  "9092": " dep",
  "9093": " dashed",
  "9094": " dandel",
  "9095": " cruel",
  "9096": " coughed",
  "9097": " copied",
  "9098": " container",
  "9099": " confidence",
  "9100": " conductor",
  "9101": " concent",
  "9102": " computers",
  "9103": " combing",
  "9104": " clover",
  "9105": " clip",
  "9106": " cherish",
  "9107": " checking",
  "9108": " charge",
  "9109": " chatter",
  "9110": " calmly",
  "9111": " congratul",
  "9112": " burying",
  "9113": " boil",
  "9114": " bluebird",
  "9115": " bills",
  "9116": " beautif",
  "9117": " battle",
  "9118": " buddy",
  "9119": " born",
  "9120": " awful",
  "9121": " attem",
  "9122": " attack",
  "9123": " astronauts",
  "9124": " approach",
  "9125": " applauding",
  "9126": " aprons",
  "9127": " airplanes",
  "9128": " ages",
  "9129": " afford",
  "9130": " afar",
  "9131": " address",
  "9132": " accomplished",
  "9133": " aquarium",
  "9134": " Yogi",
  "9135": " Wooly",
  "9136": " Wolf",
  "9137": " Teacher",
  "9138": " Tra",
  "9139": " Tip",
  "9140": " Switch",
  "9141": " Sundays",
  "9142": " Still",
  "9143": " Spiky",
  "9144": " Slide",
  "9145": " Samantha",
  "9146": " Sophia",
  "9147": " Sly",
  "9148": " Rosa",
  "9149": " Rainbow",
  "9150": " Rae",
  "9151": " Rubber",
  "9152": " Rolly",
  "9153": " Rick",
  "9154": " Queeny",
  "9155": " Pupil",
  "9156": " Puss",
  "9157": " Printy",
  "9158": " Potato",
  "9159": " Poochy",
  "9160": " Orin",
  "9161": " Ox",
  "9162": " Nurse",
  "9163": " Monkey",
  "9164": " Martha",
  "9165": " Magnet",
  "9166": " Lupin",
  "9167": " Lumber",
  "9168": " Lime",
  "9169": " Life",
  "9170": " Kevin",
  "9171": " Johnson",
  "9172": " Jemma",
  "9173": " Jellyfish",
  "9174": " Jed",
  "9175": " Herbie",
  "9176": " Herb",
  "9177": " Humphrey",
  "9178": " Hank",
  "9179": " Grumpy",
  "9180": " Ginny",
  "9181": " Gill",
  "9182": " Fredrick",
  "9183": " Florence",
  "9184": " Felix",
  "9185": " Eduardo",
  "9186": " Dogs",
  "9187": " Deal",
  "9188": " Climbing",
  "9189": " Chris",
  "9190": " Chair",
  "9191": " Carlos",
  "9192": " Cars",
  "9193": " Cory",
  "9194": " Cookie",
  "9195": " Clive",
  "9196": " Celia",
  "9197": " Carmen",
  "9198": " Bury",
  "9199": " Bundles",
  "9200": " Breezy",
  "9201": " BeeBee",
  "9202": " Becky",
  "9203": " Barky",
  "9204": " Ballie",
  "9205": " Broccoli",
  "9206": " Bones",
  "9207": " Bessy",
  "9208": " Bang",
  "9209": " Annabelle",
  "9210": " Alyssa",
  "9211": " icky",
  "9212": "wee",
  "9213": "vas",
  "9214": "utely",
  "9215": "ussel",
  "9216": "usp",
  "9217": "uspicious",
  "9218": "usic",
  "9219": "upine",
  "9220": "uss",
  "9221": "tail",
  "9222": "stered",
  "9223": "storm",
  "9224": "solutely",
  "9225": "shop",
  "9226": "sey",
  "9227": "rett",
  "9228": "rent",
  "9229": "rances",
  "9230": "quee",
  "9231": "queeze",
  "9232": "peck",
  "9233": "pecker",
  "9234": "ousy",
  "9235": "ouple",
  "9236": "oula",
  "9237": "ouched",
  "9238": "oscope",
  "9239": "orth",
  "9240": "oray",
  "9241": "oebe",
  "9242": "oving",
  "9243": "of",
  "9244": "oard",
  "9245": "nif",
  "9246": "meow",
  "9247": "moo",
  "9248": "miest",
  "9249": "lescope",
  "9250": "lectric",
  "9251": "long",
  "9252": "lo",
  "9253": "lared",
  "9254": "lap",
  "9255": "kie",
  "9256": "ka",
  "9257": "just",
  "9258": "itive",
  "9259": "iran",
  "9260": "inct",
  "9261": "immi",
  "9262": "iment",
  "9263": "ilted",
  "9264": "ighting",
  "9265": "idier",
  "9266": "ico",
  "9267": "icated",
  "9268": "gets",
  "9269": "getic",
  "9270": "faction",
  "9271": "everse",
  "9272": "ethoscope",
  "9273": "etah",
  "9274": "erf",
  "9275": "enee",
  "9276": "ecc",
  "9277": "ecca",
  "9278": "ein",
  "9279": "cidents",
  "9280": "chard",
  "9281": "cupine",
  "9282": "cled",
  "9283": "cat",
  "9284": "boards",
  "9285": "beh",
  "9286": "bum",
  "9287": "build",
  "9288": "asketball",
  "9289": "asant",
  "9290": "arrin",
  "9291": "arley",
  "9292": "apons",
  "9293": "apes",
  "9294": "antr",
  "9295": "antelle",
  "9296": "antastic",
  "9297": "andas",
  "9298": "anion",
  "9299": "ampi",
  "9300": "amboo",
  "9301": "allows",
  "9302": "alf",
  "9303": "aint",
  "9304": "ails",
  "9305": "Zigzag",
  "9306": "Without",
  "9307": "William",
  "9308": "Wednesday",
  "9309": "Toot",
  "9310": "Tree",
  "9311": "Toto",
  "9312": "Tony",
  "9313": "Tam",
  "9314": "Stand",
  "9315": "Snowy",
  "9316": "Slowly",
  "9317": "Rover",
  "9318": "Ruff",
  "9319": "Pam",
  "9320": "Nora",
  "9321": "Nina",
  "9322": "Never",
  "9323": "Nate",
  "9324": "Megan",
  "9325": "Mouse",
  "9326": "Mint",
  "9327": "Milo",
  "9328": "Magic",
  "9329": "Luke",
  "9330": "Jonny",
  "9331": "June",
  "9332": "Janie",
  "9333": "Hippy",
  "9334": "Honey",
  "9335": "Grab",
  "9336": "Foxy",
  "9337": "Freeze",
  "9338": "Fortunately",
  "9339": "Fl",
  "9340": "Davey",
  "9341": "Down",
  "9342": "Ding",
  "9343": "Cheap",
  "9344": "Crab",
  "9345": "Candy",
  "9346": "Brown",
  "9347": "Brad",
  "9348": "Brrr",
  "9349": "Bless",
  "9350": "Back",
  "9351": "Baa",
  "9352": "Amanda",
  "9353": "Along",
  "9354": "Ahoy",
  "9355": "Aw",
  "9356": "Arrr",
  "9357": " zipping",
  "9358": " yummiest",
  "9359": " workshop",
  "9360": " woodpecker",
  "9361": " wolves",
  "9362": " woken",
  "9363": " windowsill",
  "9364": " winds",
  "9365": " wildflowers",
  "9366": " whoever",
  "9367": " waddled",
  "9368": " wiggly",
  "9369": " wicked",
  "9370": " valleys",
  "9371": " urging",
  "9372": " upside",
  "9373": " unwrapped",
  "9374": " underwater",
  "9375": " twenty",
  "9376": " treasured",
  "9377": " transformed",
  "9378": " trigger",
  "9379": " tours",
  "9380": " tossing",
  "9381": " timid",
  "9382": " tests",
  "9383": " tents",
  "9384": " telescope",
  "9385": " taps",
  "9386": " tumbling",
  "9387": " ter",
  "9388": " tend",
  "9389": " tantr",
  "9390": " sweeter",
  "9391": " swans",
  "9392": " surrendered",
  "9393": " successfully",
  "9394": " stunning",
  "9395": " strokes",
  "9396": " stretchy",
  "9397": " stored",
  "9398": " staffs",
  "9399": " stacking",
  "9400": " stethoscope",
  "9401": " squeezes",
  "9402": " squished",
  "9403": " spaces",
  "9404": " snowing",
  "9405": " sneezes",
  "9406": " sneaks",
  "9407": " snipped",
  "9408": " snip",
  "9409": " sleeps",
  "9410": " slaps",
  "9411": " sincere",
  "9412": " shrugs",
  "9413": " shrunk",
  "9414": " shoots",
  "9415": " shoo",
  "9416": " shatter",
  "9417": " settling",
  "9418": " servant",
  "9419": " sandcastles",
  "9420": " sacks",
  "9421": " rowing",
  "9422": " roofs",
  "9423": " restoring",
  "9424": " responded",
  "9425": " rescuing",
  "9426": " reappeared",
  "9427": " reality",
  "9428": " rebuild",
  "9429": " rags",
  "9430": " raising",
  "9431": " protection",
  "9432": " proved",
  "9433": " prod",
  "9434": " process",
  "9435": " postman",
  "9436": " possession",
  "9437": " porcupine",
  "9438": " ponytail",
  "9439": " pose",
  "9440": " plank",
  "9441": " pilots",
  "9442": " persistence",
  "9443": " pedaling",
  "9444": " peep",
  "9445": " pastor",
  "9446": " pipes",
  "9447": " pandas",
  "9448": " owns",
  "9449": " outfit",
  "9450": " outcome",
  "9451": " orders",
  "9452": " orchard",
  "9453": " octopuses",
  "9454": " nightmares",
  "9455": " nights",
  "9456": " nibble",
  "9457": " necks",
  "9458": " murky",
  "9459": " mustered",
  "9460": " mindful",
  "9461": " messages",
  "9462": " merma",
  "9463": " material",
  "9464": " matey",
  "9465": " mats",
  "9466": " marve",
  "9467": " mailboxes",
  "9468": " magnif",
  "9469": " lurking",
  "9470": " leans",
  "9471": " leaking",
  "9472": " layer",
  "9473": " lawyers",
  "9474": " laws",
  "9475": " lace",
  "9476": " lush",
  "9477": " kneeling",
  "9478": " kissing",
  "9479": " keyhole",
  "9480": " kayaks",
  "9481": " killed",
  "9482": " jacks",
  "9483": " jugg",
  "9484": " itches",
  "9485": " inform",
  "9486": " inter",
  "9487": " horri",
  "9488": " hooks",
  "9489": " honking",
  "9490": " holidays",
  "9491": " hoe",
  "9492": " headache",
  "9493": " hey",
  "9494": " hawk",
  "9495": " hardest",
  "9496": " hangers",
  "9497": " haircutter",
  "9498": " hundred",
  "9499": " hood",
  "9500": " guilt",
  "9501": " grandparents",
  "9502": " goodness",
  "9503": " gooey",
  "9504": " glittering",
  "9505": " glittered",
  "9506": " frustration",
  "9507": " flashes",
  "9508": " flashed",
  "9509": " fetched",
  "9510": " facing",
  "9511": " fuzzy",
  "9512": " fired",
  "9513": " fif",
  "9514": " ferry",
  "9515": " fantastic",
  "9516": " fade",
  "9517": " experiment",
  "9518": " expert",
  "9519": " exams",
  "9520": " engines",
  "9521": " energetic",
  "9522": " elbows",
  "9523": " drill",
  "9524": " drawers",
  "9525": " drown",
  "9526": " discussing",
  "9527": " discoveries",
  "9528": " disappoint",
  "9529": " disagreeing",
  "9530": " discouraged",
  "9531": " diamonds",
  "9532": " div",
  "9533": " descri",
  "9534": " declared",
  "9535": " dandelion",
  "9536": " customers",
  "9537": " current",
  "9538": " cubs",
  "9539": " creep",
  "9540": " crushed",
  "9541": " cowboys",
  "9542": " cotton",
  "9543": " cooed",
  "9544": " continuing",
  "9545": " convers",
  "9546": " conqu",
  "9547": " companion",
  "9548": " communicate",
  "9549": " collapsed",
  "9550": " clam",
  "9551": " chocolates",
  "9552": " chopping",
  "9553": " cheetah",
  "9554": " cheated",
  "9555": " chatted",
  "9556": " chains",
  "9557": " chin",
  "9558": " chilly",
  "9559": " chill",
  "9560": " carries",
  "9561": " canvas",
  "9562": " couple",
  "9563": " bushy",
  "9564": " burrow",
  "9565": " bumping",
  "9566": " bubbly",
  "9567": " brakes",
  "9568": " bounded",
  "9569": " booth",
  "9570": " blushed",
  "9571": " blob",
  "9572": " birdie",
  "9573": " beeps",
  "9574": " beautifully",
  "9575": " beaks",
  "9576": " beating",
  "9577": " banging",
  "9578": " bamboo",
  "9579": " aston",
  "9580": " album",
  "9581": " agreeing",
  "9582": " adventurer",
  "9583": " accidents",
  "9584": " abilities",
  "9585": " aboard",
  "9586": " Zog",
  "9587": " Zane",
  "9588": " Whistler",
  "9589": " Win",
  "9590": " Vroom",
  "9591": " Using",
  "9592": " Use",
  "9593": " Trucko",
  "9594": " Tomorrow",
  "9595": " Thanksgiving",
  "9596": " Think",
  "9597": " Teach",
  "9598": " Tuck",
  "9599": " Things",
  "9600": " Stacy",
  "9601": " Spidy",
  "9602": " Sharp",
  "9603": " Share",
  "9604": " Sean",
  "9605": " Super",
  "9606": " Sugar",
  "9607": " Speed",
  "9608": " Soup",
  "9609": " Sister",
  "9610": " Sienna",
  "9611": " Rhythm",
  "9612": " Russel",
  "9613": " Rory",
  "9614": " Ropy",
  "9615": " Rolo",
  "9616": " Rocco",
  "9617": " Rico",
  "9618": " Ravi",
  "9619": " Raccoon",
  "9620": " Quacky",
  "9621": " Polite",
  "9622": " Pokie",
  "9623": " Paula",
  "9624": " Pick",
  "9625": " Perri",
  "9626": " Pearl",
  "9627": " Past",
  "9628": " Onion",
  "9629": " Olivia",
  "9630": " Ot",
  "9631": " Oat",
  "9632": " Nora",
  "9633": " Night",
  "9634": " Never",
  "9635": " Modest",
  "9636": " Millicent",
  "9637": " Microscope",
  "9638": " Melinda",
  "9639": " Marsha",
  "9640": " Mousy",
  "9641": " Mine",
  "9642": " Mick",
  "9643": " Mabel",
  "9644": " Luca",
  "9645": " Lea",
  "9646": " Lizzie",
  "9647": " Linda",
  "9648": " Lift",
  "9649": " Keith",
  "9650": " Kin",
  "9651": " Katy",
  "9652": " Karen",
  "9653": " Jonny",
  "9654": " Jonathan",
  "9655": " Jodie",
  "9656": " Joanna",
  "9657": " Jordan",
  "9658": " Jason",
  "9659": " Im",
  "9660": " Icy",
  "9661": " Helping",
  "9662": " Hula",
  "9663": " Hannah",
  "9664": " Hana",
  "9665": " Hailey",
  "9666": " Gramps",
  "9667": " Gwen",
  "9668": " Gl",
  "9669": " Fleur",
  "9670": " Flutter",
  "9671": " Flip",
  "9672": " Flash",
  "9673": " Furry",
  "9674": " Fold",
  "9675": " Fighting",
  "9676": " Fanny",
  "9677": " Eva",
  "9678": " Does",
  "9679": " Dream",
  "9680": " Dee",
  "9681": " Cowy",
  "9682": " Clumsy",
  "9683": " Close",
  "9684": " Claws",
  "9685": " Chewy",
  "9686": " Chef",
  "9687": " Cheese",
  "9688": " Chantelle",
  "9689": " Curious",
  "9690": " Con",
  "9691": " Comp",
  "9692": " Cate",
  "9693": " Blake",
  "9694": " Bonnie",
  "9695": " Bolly",
  "9696": " Bed",
  "9697": " Basketball",
  "9698": " Annabel",
  "9699": " Amie",
  "9700": " Afterwards",
  "9701": " Accidents",
  "9702": " Aman",
  "9703": " Alf",
  "9704": "whoosh",
  "9705": "working",
  "9706": "whee",
  "9707": "welcome",
  "9708": "vive",
  "9709": "vince",
  "9710": "usan",
  "9711": "urora",
  "9712": "unted",
  "9713": "university",
  "9714": "umm",
  "9715": "umed",
  "9716": "ulped",
  "9717": "udged",
  "9718": "ucksack",
  "9719": "under",
  "9720": "stupid",
  "9721": "stantly",
  "9722": "ssil",
  "9723": "shrink",
  "9724": "shm",
  "9725": "shmallows",
  "9726": "shaped",
  "9727": "shadow",
  "9728": "sery",
  "9729": "ringe",
  "9730": "ressed",
  "9731": "res",
  "9732": "rit",
  "9733": "pting",
  "9734": "parable",
  "9735": "pr",
  "9736": "pow",
  "9737": "pher",
  "9738": "pan",
  "9739": "otion",
  "9740": "osure",
  "9741": "ordinary",
  "9742": "open",
  "9743": "oped",
  "9744": "ooper",
  "9745": "onde",
  "9746": "onfused",
  "9747": "oot",
  "9748": "oison",
  "9749": "namon",
  "9750": "nip",
  "9751": "nings",
  "9752": "marine",
  "9753": "mas",
  "9754": "lowing",
  "9755": "lls",
  "9756": "lling",
  "9757": "llent",
  "9758": "llas",
  "9759": "lest",
  "9760": "leam",
  "9761": "leaf",
  "9762": "lot",
  "9763": "like",
  "9764": "lied",
  "9765": "law",
  "9766": "laud",
  "9767": "ks",
  "9768": "ker",
  "9769": "jest",
  "9770": "izzes",
  "9771": "ively",
  "9772": "itched",
  "9773": "itam",
  "9774": "istening",
  "9775": "istmas",
  "9776": "iri",
  "9777": "inner",
  "9778": "innamon",
  "9779": "ima",
  "9780": "ightning",
  "9781": "ientist",
  "9782": "idden",
  "9783": "icking",
  "9784": "icers",
  "9785": "ically",
  "9786": "iao",
  "9787": "iens",
  "9788": "hoo",
  "9789": "hne",
  "9790": "gr",
  "9791": "freeze",
  "9792": "free",
  "9793": "flowing",
  "9794": "eta",
  "9795": "eral",
  "9796": "ellie",
  "9797": "elsey",
  "9798": "elax",
  "9799": "eadow",
  "9800": "eil",
  "9801": "ece",
  "9802": "eat",
  "9803": "ean",
  "9804": "des",
  "9805": "daughter",
  "9806": "cutter",
  "9807": "colored",
  "9808": "coat",
  "9809": "cellent",
  "9810": "bbling",
  "9811": "bs",
  "9812": "bounce",
  "9813": "boom",
  "9814": "bling",
  "9815": "bang",
  "9816": "azel",
  "9817": "aylor",
  "9818": "aura",
  "9819": "athy",
  "9820": "atelyn",
  "9821": "atform",
  "9822": "atal",
  "9823": "atalie",
  "9824": "arted",
  "9825": "ars",
  "9826": "applaud",
  "9827": "aptain",
  "9828": "aphne",
  "9829": "angerous",
  "9830": "ancelot",
  "9831": "anation",
  "9832": "ample",
  "9833": "ambled",
  "9834": "alerious",
  "9835": "Yesterday",
  "9836": "Years",
  "9837": "Whist",
  "9838": "Wo",
  "9839": "Wisdom",
  "9840": "Whe",
  "9841": "Wally",
  "9842": "Violet",
  "9843": "Trixie",
  "9844": "Ten",
  "9845": "Stella",
  "9846": "Spin",
  "9847": "Spark",
  "9848": "Sweet",
  "9849": "Squ",
  "9850": "Sc",
  "9851": "Ros",
  "9852": "Pippa",
  "9853": "Pretty",
  "9854": "Playing",
  "9855": "Play",
  "9856": "Pizza",
  "9857": "Pin",
  "9858": "Oxygen",
  "9859": "Move",
  "9860": "Mittens",
  "9861": "Mila",
  "9862": "Michael",
  "9863": "Many",
  "9864": "Mabel",
  "9865": "Lion",
  "9866": "Lauren",
  "9867": "Laura",
  "9868": "Kelsey",
  "9869": "Kay",
  "9870": "Jacky",
  "9871": "Jilly",
  "9872": "Izzy",
  "9873": "Hannah",
  "9874": "Grow",
  "9875": "Frog",
  "9876": "Finn",
  "9877": "Free",
  "9878": "Feeling",
  "9879": "Ever",
  "9880": "Elephant",
  "9881": "Eddie",
  "9882": "Daniel",
  "9883": "Dino",
  "9884": "Dare",
  "9885": "Check",
  "9886": "Catty",
  "9887": "Confused",
  "9888": "Celina",
  "9889": "Brownie",
  "9890": "Birds",
  "9891": "Bu",
  "9892": "Books",
  "9893": "Ball",
  "9894": "Auntie",
  "9895": "Ahh",
  "9896": "Ant",
  "9897": "AT",
  "9898": "?!",
  "9899": ".’",
  "9900": "!'.",
  "9901": "!''",
  "9902": " zips",
  "9903": " zebras",
  "9904": " yielding",
  "9905": " wriggled",
  "9906": " worst",
  "9907": " woodcutter",
  "9908": " winking",
  "9909": " wiggling",
  "9910": " whines",
  "9911": " weapons",
  "9912": " warriors",
  "9913": " waistbands",
  "9914": " unlo",
  "9915": " unicorns",
  "9916": " unz",
  "9917": " unless",
  "9918": " umbrellas",
  "9919": " trusts",
  "9920": " trumpets",
  "9921": " treet",
  "9922": " traps",
  "9923": " trailer",
  "9924": " trot",
  "9925": " topp",
  "9926": " tickles",
  "9927": " thumbs",
  "9928": " thump",
  "9929": " tender",
  "9930": " tantrum",
  "9931": " tanks",
  "9932": " tablet",
  "9933": " tugging",
  "9934": " tar",
  "9935": " syringe",
  "9936": " swayed",
  "9937": " swir",
  "9938": " surfed",
  "9939": " survive",
  "9940": " supplied",
  "9941": " suggests",
  "9942": " suggestion",
  "9943": " succeeding",
  "9944": " submarine",
  "9945": " studies",
  "9946": " striking",
  "9947": " stump",
  "9948": " stinky",
  "9949": " squir",
  "9950": " squinted",
  "9951": " sprinkle",
  "9952": " sprung",
  "9953": " spoken",
  "9954": " speeds",
  "9955": " speaker",
  "9956": " speck",
  "9957": " spied",
  "9958": " sooner",
  "9959": " softness",
  "9960": " softest",
  "9961": " softened",
  "9962": " soapy",
  "9963": " sniffling",
  "9964": " sneezy",
  "9965": " smash",
  "9966": " slices",
  "9967": " sleigh",
  "9968": " slime",
  "9969": " signal",
  "9970": " sickness",
  "9971": " shyly",
  "9972": " servants",
  "9973": " seriously",
  "9974": " serving",
  "9975": " secretly",
  "9976": " section",
  "9977": " sculptures",
  "9978": " scrubbing",
  "9979": " scrunch",
  "9980": " scrambled",
  "9981": " scoops",
  "9982": " scene",
  "9983": " scares",
  "9984": " scowl",
  "9985": " scientist",
  "9986": " science",
  "9987": " satisfaction",
  "9988": " saves",
  "9989": " suspicious",
  "9990": " sly",
  "9991": " sinking",
  "9992": " roles",
  "9993": " roamed",
  "9994": " ribbit",
  "9995": " respecting",
  "9996": " releasing",
  "9997": " refusing",
  "9998": " raincoat",
  "9999": " racers",
  "10000": " racer",
  "10001": " raked",
  "10002": " rumbling",
  "10003": " rucksack",
  "10004": " quieter",
  "10005": " quacks",
  "10006": " quizzes",
  "10007": " puffed",
  "10008": " protein",
  "10009": " property",
  "10010": " promising",
  "10011": " prizes",
  "10012": " prized",
  "10013": " prey",
  "10014": " postcards",
  "10015": " popsic",
  "10016": " ponds",
  "10017": " pleasant",
  "10018": " plun",
  "10019": " plum",
  "10020": " platform",
  "10021": " pistols",
  "10022": " piglets",
  "10023": " picnics",
  "10024": " phones",
  "10025": " peck",
  "10026": " passion",
  "10027": " panting",
  "10028": " paddling",
  "10029": " puffy",
  "10030": " outsm",
  "10031": " officers",
  "10032": " obstacle",
  "10033": " nuzzles",
  "10034": " nurses",
  "10035": " nursery",
  "10036": " nibbling",
  "10037": " nestled",
  "10038": " nearly",
  "10039": " nations",
  "10040": " mustn",
  "10041": " movements",
  "10042": " motors",
  "10043": " month",
  "10044": " moan",
  "10045": " mixes",
  "10046": " meows",
  "10047": " meetings",
  "10048": " mattered",
  "10049": " marking",
  "10050": " marshmallows",
  "10051": " manager",
  "10052": " magnifying",
  "10053": " mound",
  "10054": " mend",
  "10055": " main",
  "10056": " lunged",
  "10057": " lonel",
  "10058": " loc",
  "10059": " loaf",
  "10060": " listener",
  "10061": " leaping",
  "10062": " lever",
  "10063": " leashes",
  "10064": " lazily",
  "10065": " lanterns",
  "10066": " landing",
  "10067": " kneels",
  "10068": " knives",
  "10069": " knit",
  "10070": " kindest",
  "10071": " judges",
  "10072": " jars",
  "10073": " islands",
  "10074": " instantly",
  "10075": " inseparable",
  "10076": " information",
  "10077": " increasing",
  "10078": " hummed",
  "10079": " horrible",
  "10080": " hops",
  "10081": " hooves",
  "10082": " honks",
  "10083": " honor",
  "10084": " hoses",
  "10085": " hates",
  "10086": " handles",
  "10087": " hammers",
  "10088": " hammered",
  "10089": " granny",
  "10090": " glistening",
  "10091": " glimmering",
  "10092": " gulped",
  "10093": " gulp",
  "10094": " groom",
  "10095": " gleam",
  "10096": " giddy",
  "10097": " gates",
  "10098": " funeral",
  "10099": " fulfill",
  "10100": " freely",
  "10101": " followers",
  "10102": " fossil",
  "10103": " foam",
  "10104": " flyer",
  "10105": " floors",
  "10106": " flippers",
  "10107": " flicked",
  "10108": " flick",
  "10109": " flashing",
  "10110": " fishes",
  "10111": " fights",
  "10112": " fascinating",
  "10113": " fail",
  "10114": " fading",
  "10115": " extraordinary",
  "10116": " explanation",
  "10117": " example",
  "10118": " enjoys",
  "10119": " eldest",
  "10120": " electric",
  "10121": " dustpan",
  "10122": " drowned",
  "10123": " dries",
  "10124": " doggie",
  "10125": " dodge",
  "10126": " disappearing",
  "10127": " desks",
  "10128": " deserves",
  "10129": " deserved",
  "10130": " desper",
  "10131": " depths",
  "10132": " delightful",
  "10133": " defeated",
  "10134": " dumb",
  "10135": " ditch",
  "10136": " date",
  "10137": " cupcake",
  "10138": " cuddling",
  "10139": " crowded",
  "10140": " creak",
  "10141": " crafts",
  "10142": " cracks",
  "10143": " crouched",
  "10144": " crisp",
  "10145": " cowboy",
  "10146": " costs",
  "10147": " coolness",
[...]
